{
  "version": "1.0",
  "truncation": null,
  "padding": null,
  "added_tokens": [
    {
      "id": 0,
      "content": "<PAD>",
      "single_word": false,
      "lstrip": false,
      "rstrip": false,
      "normalized": false,
      "special": true
    },
    {
      "id": 1,
      "content": "<UNK>",
      "single_word": false,
      "lstrip": false,
      "rstrip": false,
      "normalized": false,
      "special": true
    },
    {
      "id": 2,
      "content": "<BOS>",
      "single_word": false,
      "lstrip": false,
      "rstrip": false,
      "normalized": false,
      "special": true
    },
    {
      "id": 3,
      "content": "<EOS>",
      "single_word": false,
      "lstrip": false,
      "rstrip": false,
      "normalized": false,
      "special": true
    }
  ],
  "normalizer": null,
  "pre_tokenizer": {
    "type": "Whitespace"
  },
  "post_processor": null,
  "decoder": null,
  "model": {
    "type": "BPE",
    "dropout": null,
    "unk_token": "<UNK>",
    "continuing_subword_prefix": null,
    "end_of_word_suffix": null,
    "fuse_unk": false,
    "byte_fallback": false,
    "ignore_merges": false,
    "vocab": {
      "<PAD>": 0,
      "<UNK>": 1,
      "<BOS>": 2,
      "<EOS>": 3,
      "!": 4,
      "\"": 5,
      "#": 6,
      "$": 7,
      "%": 8,
      "&": 9,
      "'": 10,
      "(": 11,
      ")": 12,
      "*": 13,
      "+": 14,
      ",": 15,
      "-": 16,
      ".": 17,
      "/": 18,
      "0": 19,
      "1": 20,
      "2": 21,
      "3": 22,
      "4": 23,
      "5": 24,
      "6": 25,
      "7": 26,
      "8": 27,
      "9": 28,
      ":": 29,
      ";": 30,
      "<": 31,
      "=": 32,
      ">": 33,
      "?": 34,
      "@": 35,
      "A": 36,
      "B": 37,
      "C": 38,
      "D": 39,
      "E": 40,
      "F": 41,
      "G": 42,
      "H": 43,
      "I": 44,
      "J": 45,
      "K": 46,
      "L": 47,
      "M": 48,
      "N": 49,
      "O": 50,
      "P": 51,
      "Q": 52,
      "R": 53,
      "S": 54,
      "T": 55,
      "U": 56,
      "V": 57,
      "W": 58,
      "X": 59,
      "Y": 60,
      "Z": 61,
      "[": 62,
      "\\": 63,
      "]": 64,
      "^": 65,
      "_": 66,
      "`": 67,
      "a": 68,
      "b": 69,
      "c": 70,
      "d": 71,
      "e": 72,
      "f": 73,
      "g": 74,
      "h": 75,
      "i": 76,
      "j": 77,
      "k": 78,
      "l": 79,
      "m": 80,
      "n": 81,
      "o": 82,
      "p": 83,
      "q": 84,
      "r": 85,
      "s": 86,
      "t": 87,
      "u": 88,
      "v": 89,
      "w": 90,
      "x": 91,
      "y": 92,
      "z": 93,
      "{": 94,
      "|": 95,
      "}": 96,
      "~": 97,
      "": 98,
      "": 99,
      "": 100,
      "": 101,
      "": 102,
      "": 103,
      "¡": 104,
      "¢": 105,
      "£": 106,
      "¤": 107,
      "¥": 108,
      "¦": 109,
      "§": 110,
      "©": 111,
      "«": 112,
      "¬": 113,
      "­": 114,
      "®": 115,
      "°": 116,
      "±": 117,
      "¶": 118,
      "·": 119,
      "»": 120,
      "¿": 121,
      "À": 122,
      "Á": 123,
      "Â": 124,
      "Ä": 125,
      "Å": 126,
      "Æ": 127,
      "Ç": 128,
      "È": 129,
      "É": 130,
      "Ê": 131,
      "Ë": 132,
      "Ì": 133,
      "Í": 134,
      "Î": 135,
      "Ñ": 136,
      "Ò": 137,
      "Ó": 138,
      "Ô": 139,
      "Ö": 140,
      "×": 141,
      "Ø": 142,
      "Ù": 143,
      "Ú": 144,
      "Û": 145,
      "Ü": 146,
      "Ý": 147,
      "Þ": 148,
      "ß": 149,
      "à": 150,
      "á": 151,
      "â": 152,
      "ã": 153,
      "ä": 154,
      "å": 155,
      "æ": 156,
      "ç": 157,
      "è": 158,
      "é": 159,
      "ê": 160,
      "ë": 161,
      "ì": 162,
      "í": 163,
      "î": 164,
      "ï": 165,
      "ð": 166,
      "ñ": 167,
      "ò": 168,
      "ó": 169,
      "ô": 170,
      "õ": 171,
      "ö": 172,
      "÷": 173,
      "ø": 174,
      "ù": 175,
      "ú": 176,
      "û": 177,
      "ü": 178,
      "ý": 179,
      "þ": 180,
      "ÿ": 181,
      "Ā": 182,
      "ā": 183,
      "Ă": 184,
      "ă": 185,
      "Ą": 186,
      "ą": 187,
      "Ć": 188,
      "ć": 189,
      "Ĉ": 190,
      "ĉ": 191,
      "ċ": 192,
      "Č": 193,
      "č": 194,
      "Ď": 195,
      "ď": 196,
      "Đ": 197,
      "đ": 198,
      "Ē": 199,
      "ē": 200,
      "ĕ": 201,
      "Ė": 202,
      "ė": 203,
      "Ę": 204,
      "ę": 205,
      "Ě": 206,
      "ě": 207,
      "ĝ": 208,
      "ğ": 209,
      "ġ": 210,
      "Ħ": 211,
      "ħ": 212,
      "Ĩ": 213,
      "ĩ": 214,
      "Ī": 215,
      "ī": 216,
      "ĭ": 217,
      "Į": 218,
      "į": 219,
      "İ": 220,
      "ı": 221,
      "ĵ": 222,
      "Ĺ": 223,
      "ļ": 224,
      "ľ": 225,
      "Ł": 226,
      "ł": 227,
      "Ń": 228,
      "ń": 229,
      "Ņ": 230,
      "ņ": 231,
      "ň": 232,
      "ŋ": 233,
      "Ō": 234,
      "ō": 235,
      "ŏ": 236,
      "Ő": 237,
      "ő": 238,
      "Œ": 239,
      "œ": 240,
      "Ŗ": 241,
      "Ř": 242,
      "ř": 243,
      "Ś": 244,
      "ś": 245,
      "Ŝ": 246,
      "ŝ": 247,
      "Ş": 248,
      "ş": 249,
      "Š": 250,
      "š": 251,
      "ţ": 252,
      "Ť": 253,
      "ť": 254,
      "Ŧ": 255,
      "ŧ": 256,
      "Ũ": 257,
      "ũ": 258,
      "Ū": 259,
      "ū": 260,
      "ŭ": 261,
      "ů": 262,
      "Ű": 263,
      "ű": 264,
      "Ų": 265,
      "ų": 266,
      "ŵ": 267,
      "Ŷ": 268,
      "ŷ": 269,
      "Ÿ": 270,
      "Ź": 271,
      "ź": 272,
      "Ż": 273,
      "ż": 274,
      "Ž": 275,
      "ž": 276,
      "ơ": 277,
      "ư": 278,
      "ƿ": 279,
      "ǁ": 280,
      "ǎ": 281,
      "ǐ": 282,
      "ǒ": 283,
      "ǔ": 284,
      "ǚ": 285,
      "ǜ": 286,
      "ǥ": 287,
      "ǧ": 288,
      "ǫ": 289,
      "ǵ": 290,
      "Ș": 291,
      "ș": 292,
      "Ț": 293,
      "ț": 294,
      "ȝ": 295,
      "ȟ": 296,
      "ȯ": 297,
      "Ȳ": 298,
      "ȳ": 299,
      "Ƚ": 300,
      "Ⱦ": 301,
      "ɐ": 302,
      "ɑ": 303,
      "ɒ": 304,
      "ɔ": 305,
      "ɕ": 306,
      "ə": 307,
      "ɛ": 308,
      "ɜ": 309,
      "ɝ": 310,
      "ɟ": 311,
      "ɡ": 312,
      "ɣ": 313,
      "ɥ": 314,
      "ɦ": 315,
      "ɧ": 316,
      "ɨ": 317,
      "ɪ": 318,
      "ɫ": 319,
      "ɬ": 320,
      "ɭ": 321,
      "ɮ": 322,
      "ɱ": 323,
      "ɲ": 324,
      "ɳ": 325,
      "ɵ": 326,
      "ɹ": 327,
      "ɾ": 328,
      "ʀ": 329,
      "ʁ": 330,
      "ʃ": 331,
      "ʉ": 332,
      "ʊ": 333,
      "ʌ": 334,
      "ʍ": 335,
      "ʏ": 336,
      "ʐ": 337,
      "ʒ": 338,
      "ʔ": 339,
      "ʕ": 340,
      "ʙ": 341,
      "ʝ": 342,
      "ʤ": 343,
      "ʧ": 344,
      "ʹ": 345,
      "ʻ": 346,
      "ʼ": 347,
      "ʾ": 348,
      "ʿ": 349,
      "ˀ": 350,
      "ˇ": 351,
      "ˈ": 352,
      "ˉ": 353,
      "ˌ": 354,
      "ː": 355,
      "̀": 356,
      "́": 357,
      "̂": 358,
      "̃": 359,
      "̄": 360,
      "̇": 361,
      "̈": 362,
      "̊": 363,
      "̍": 364,
      "̓": 365,
      "̥": 366,
      "̨": 367,
      "̩": 368,
      "̪": 369,
      "̯": 370,
      "̱": 371,
      "͘": 372,
      "͡": 373,
      "Ͳ": 374,
      "Έ": 375,
      "Ή": 376,
      "ΐ": 377,
      "Α": 378,
      "Β": 379,
      "Γ": 380,
      "Δ": 381,
      "Ε": 382,
      "Ζ": 383,
      "Η": 384,
      "Θ": 385,
      "Ι": 386,
      "Κ": 387,
      "Λ": 388,
      "Μ": 389,
      "Ν": 390,
      "Ξ": 391,
      "Ο": 392,
      "Π": 393,
      "Ρ": 394,
      "Σ": 395,
      "Τ": 396,
      "Υ": 397,
      "Φ": 398,
      "Χ": 399,
      "Ψ": 400,
      "Ω": 401,
      "ά": 402,
      "έ": 403,
      "ή": 404,
      "ί": 405,
      "α": 406,
      "β": 407,
      "γ": 408,
      "δ": 409,
      "ε": 410,
      "ζ": 411,
      "η": 412,
      "θ": 413,
      "ι": 414,
      "κ": 415,
      "λ": 416,
      "μ": 417,
      "ν": 418,
      "ξ": 419,
      "ο": 420,
      "π": 421,
      "ρ": 422,
      "ς": 423,
      "σ": 424,
      "τ": 425,
      "υ": 426,
      "φ": 427,
      "χ": 428,
      "ψ": 429,
      "ω": 430,
      "ϊ": 431,
      "ό": 432,
      "ύ": 433,
      "ώ": 434,
      "ϙ": 435,
      "ϛ": 436,
      "Ё": 437,
      "Є": 438,
      "І": 439,
      "А": 440,
      "Б": 441,
      "В": 442,
      "Г": 443,
      "Д": 444,
      "Е": 445,
      "Ж": 446,
      "З": 447,
      "И": 448,
      "Й": 449,
      "К": 450,
      "Л": 451,
      "М": 452,
      "Н": 453,
      "О": 454,
      "П": 455,
      "Р": 456,
      "С": 457,
      "Т": 458,
      "У": 459,
      "Ф": 460,
      "Х": 461,
      "Ц": 462,
      "Ч": 463,
      "Ш": 464,
      "Ъ": 465,
      "Ы": 466,
      "Ь": 467,
      "Э": 468,
      "Ю": 469,
      "Я": 470,
      "а": 471,
      "б": 472,
      "в": 473,
      "г": 474,
      "д": 475,
      "е": 476,
      "ж": 477,
      "з": 478,
      "и": 479,
      "й": 480,
      "к": 481,
      "л": 482,
      "м": 483,
      "н": 484,
      "о": 485,
      "п": 486,
      "р": 487,
      "с": 488,
      "т": 489,
      "у": 490,
      "ф": 491,
      "х": 492,
      "ц": 493,
      "ч": 494,
      "ш": 495,
      "щ": 496,
      "ъ": 497,
      "ы": 498,
      "ь": 499,
      "э": 500,
      "ю": 501,
      "я": 502,
      "ё": 503,
      "є": 504,
      "і": 505,
      "ї": 506,
      "ј": 507,
      "ќ": 508,
      "ў": 509,
      "ѣ": 510,
      "ғ": 511,
      "қ": 512,
      "ң": 513,
      "ү": 514,
      "ұ": 515,
      "ә": 516,
      "ө": 517,
      "֑": 518,
      "֒": 519,
      "֔": 520,
      "֕": 521,
      "֖": 522,
      "֙": 523,
      "֛": 524,
      "֣": 525,
      "֤": 526,
      "֥": 527,
      "֨": 528,
      "֮": 529,
      "ְ": 530,
      "ֱ": 531,
      "ֲ": 532,
      "ֳ": 533,
      "ִ": 534,
      "ֵ": 535,
      "ֶ": 536,
      "ַ": 537,
      "ָ": 538,
      "ֹ": 539,
      "ֻ": 540,
      "ּ": 541,
      "ֽ": 542,
      "־": 543,
      "ֿ": 544,
      "ׁ": 545,
      "ׂ": 546,
      "׃": 547,
      "א": 548,
      "ב": 549,
      "ג": 550,
      "ד": 551,
      "ה": 552,
      "ו": 553,
      "ז": 554,
      "ח": 555,
      "ט": 556,
      "י": 557,
      "ך": 558,
      "כ": 559,
      "ל": 560,
      "ם": 561,
      "מ": 562,
      "ן": 563,
      "נ": 564,
      "ס": 565,
      "ע": 566,
      "ף": 567,
      "פ": 568,
      "ץ": 569,
      "צ": 570,
      "ק": 571,
      "ר": 572,
      "ש": 573,
      "ת": 574,
      "װ": 575,
      "،": 576,
      "؛": 577,
      "؟": 578,
      "ء": 579,
      "آ": 580,
      "أ": 581,
      "إ": 582,
      "ئ": 583,
      "ا": 584,
      "ب": 585,
      "ة": 586,
      "ت": 587,
      "ث": 588,
      "ج": 589,
      "ح": 590,
      "خ": 591,
      "د": 592,
      "ذ": 593,
      "ر": 594,
      "ز": 595,
      "س": 596,
      "ش": 597,
      "ص": 598,
      "ض": 599,
      "ط": 600,
      "ظ": 601,
      "ع": 602,
      "غ": 603,
      "ـ": 604,
      "ف": 605,
      "ق": 606,
      "ك": 607,
      "ل": 608,
      "م": 609,
      "ن": 610,
      "ه": 611,
      "و": 612,
      "ى": 613,
      "ي": 614,
      "ً": 615,
      "ٌ": 616,
      "ٍ": 617,
      "َ": 618,
      "ُ": 619,
      "ِ": 620,
      "ّ": 621,
      "ْ": 622,
      "ٹ": 623,
      "پ": 624,
      "چ": 625,
      "ک": 626,
      "گ": 627,
      "ں": 628,
      "ھ": 629,
      "ہ": 630,
      "ی": 631,
      "ے": 632,
      "۵": 633,
      "۷": 634,
      "ँ": 635,
      "ं": 636,
      "ः": 637,
      "अ": 638,
      "आ": 639,
      "इ": 640,
      "ई": 641,
      "उ": 642,
      "ऊ": 643,
      "ए": 644,
      "ऑ": 645,
      "ओ": 646,
      "औ": 647,
      "क": 648,
      "ख": 649,
      "ग": 650,
      "घ": 651,
      "च": 652,
      "छ": 653,
      "ज": 654,
      "झ": 655,
      "ञ": 656,
      "ट": 657,
      "ठ": 658,
      "ड": 659,
      "ढ": 660,
      "ण": 661,
      "त": 662,
      "थ": 663,
      "द": 664,
      "ध": 665,
      "न": 666,
      "प": 667,
      "फ": 668,
      "ब": 669,
      "भ": 670,
      "म": 671,
      "य": 672,
      "र": 673,
      "ल": 674,
      "ळ": 675,
      "व": 676,
      "श": 677,
      "ष": 678,
      "स": 679,
      "ह": 680,
      "़": 681,
      "ा": 682,
      "ि": 683,
      "ी": 684,
      "ु": 685,
      "ू": 686,
      "ृ": 687,
      "े": 688,
      "ै": 689,
      "ो": 690,
      "ौ": 691,
      "्": 692,
      "ॐ": 693,
      "।": 694,
      "॥": 695,
      "ং": 696,
      "অ": 697,
      "আ": 698,
      "ই": 699,
      "উ": 700,
      "এ": 701,
      "ও": 702,
      "ক": 703,
      "খ": 704,
      "গ": 705,
      "ঘ": 706,
      "ঙ": 707,
      "চ": 708,
      "ছ": 709,
      "জ": 710,
      "ট": 711,
      "ঠ": 712,
      "ড": 713,
      "ণ": 714,
      "ত": 715,
      "থ": 716,
      "দ": 717,
      "ধ": 718,
      "ন": 719,
      "প": 720,
      "ফ": 721,
      "ব": 722,
      "ভ": 723,
      "ম": 724,
      "য": 725,
      "র": 726,
      "ল": 727,
      "শ": 728,
      "ষ": 729,
      "স": 730,
      "হ": 731,
      "়": 732,
      "া": 733,
      "ি": 734,
      "ী": 735,
      "ু": 736,
      "ূ": 737,
      "ৃ": 738,
      "ে": 739,
      "ৈ": 740,
      "ো": 741,
      "্": 742,
      "১": 743,
      "২": 744,
      "৫": 745,
      "৬": 746,
      "৮": 747,
      "৯": 748,
      "ৰ": 749,
      "ৱ": 750,
      "ਂ": 751,
      "ਅ": 752,
      "ਆ": 753,
      "ਇ": 754,
      "ਈ": 755,
      "ਉ": 756,
      "ਕ": 757,
      "ਖ": 758,
      "ਗ": 759,
      "ਘ": 760,
      "ਚ": 761,
      "ਛ": 762,
      "ਜ": 763,
      "ਟ": 764,
      "ਡ": 765,
      "ਤ": 766,
      "ਦ": 767,
      "ਧ": 768,
      "ਨ": 769,
      "ਪ": 770,
      "ਫ": 771,
      "ਬ": 772,
      "ਭ": 773,
      "ਮ": 774,
      "ਯ": 775,
      "ਰ": 776,
      "ਲ": 777,
      "ਵ": 778,
      "ਸ": 779,
      "ਹ": 780,
      "਼": 781,
      "ਾ": 782,
      "ਿ": 783,
      "ੀ": 784,
      "ੁ": 785,
      "ੂ": 786,
      "ੇ": 787,
      "ੈ": 788,
      "ੋ": 789,
      "੍": 790,
      "ੜ": 791,
      "ੰ": 792,
      "ੱ": 793,
      "ં": 794,
      "અ": 795,
      "આ": 796,
      "ઇ": 797,
      "એ": 798,
      "ઓ": 799,
      "ક": 800,
      "ખ": 801,
      "ગ": 802,
      "છ": 803,
      "જ": 804,
      "ઝ": 805,
      "ટ": 806,
      "ડ": 807,
      "ણ": 808,
      "ત": 809,
      "થ": 810,
      "દ": 811,
      "ધ": 812,
      "ન": 813,
      "પ": 814,
      "ફ": 815,
      "બ": 816,
      "ભ": 817,
      "મ": 818,
      "ય": 819,
      "ર": 820,
      "લ": 821,
      "વ": 822,
      "શ": 823,
      "ષ": 824,
      "સ": 825,
      "હ": 826,
      "ા": 827,
      "િ": 828,
      "ી": 829,
      "ુ": 830,
      "ૂ": 831,
      "ૃ": 832,
      "ે": 833,
      "ો": 834,
      "્": 835,
      "அ": 836,
      "ஆ": 837,
      "இ": 838,
      "உ": 839,
      "எ": 840,
      "ஒ": 841,
      "க": 842,
      "ச": 843,
      "ட": 844,
      "ண": 845,
      "த": 846,
      "ந": 847,
      "ன": 848,
      "ப": 849,
      "ம": 850,
      "ய": 851,
      "ர": 852,
      "ற": 853,
      "ல": 854,
      "ள": 855,
      "ழ": 856,
      "வ": 857,
      "ா": 858,
      "ி": 859,
      "ீ": 860,
      "ு": 861,
      "ூ": 862,
      "ெ": 863,
      "ே": 864,
      "ை": 865,
      "ொ": 866,
      "ோ": 867,
      "்": 868,
      "ం": 869,
      "అ": 870,
      "ఇ": 871,
      "ఏ": 872,
      "క": 873,
      "గ": 874,
      "చ": 875,
      "ట": 876,
      "డ": 877,
      "త": 878,
      "ద": 879,
      "న": 880,
      "ప": 881,
      "బ": 882,
      "మ": 883,
      "య": 884,
      "ర": 885,
      "ల": 886,
      "ళ": 887,
      "వ": 888,
      "శ": 889,
      "స": 890,
      "హ": 891,
      "ా": 892,
      "ి": 893,
      "ీ": 894,
      "ు": 895,
      "ె": 896,
      "ే": 897,
      "ొ": 898,
      "ో": 899,
      "్": 900,
      "ಂ": 901,
      "ಅ": 902,
      "ಕ": 903,
      "ಗ": 904,
      "ಘ": 905,
      "ಚ": 906,
      "ಜ": 907,
      "ಟ": 908,
      "ಡ": 909,
      "ತ": 910,
      "ದ": 911,
      "ನ": 912,
      "ಪ": 913,
      "ಬ": 914,
      "ಭ": 915,
      "ಮ": 916,
      "ಯ": 917,
      "ರ": 918,
      "ಲ": 919,
      "ವ": 920,
      "ಶ": 921,
      "ಷ": 922,
      "ಸ": 923,
      "ಹ": 924,
      "ಾ": 925,
      "ಿ": 926,
      "ು": 927,
      "ೂ": 928,
      "ೆ": 929,
      "ೇ": 930,
      "ೈ": 931,
      "ೋ": 932,
      "್": 933,
      "ം": 934,
      "അ": 935,
      "ആ": 936,
      "ഈ": 937,
      "ഉ": 938,
      "ക": 939,
      "ഗ": 940,
      "ഘ": 941,
      "ങ": 942,
      "ച": 943,
      "ഛ": 944,
      "ട": 945,
      "ണ": 946,
      "ത": 947,
      "ഥ": 948,
      "ദ": 949,
      "ധ": 950,
      "ന": 951,
      "പ": 952,
      "ബ": 953,
      "ഭ": 954,
      "മ": 955,
      "യ": 956,
      "ര": 957,
      "റ": 958,
      "ല": 959,
      "ള": 960,
      "ഴ": 961,
      "വ": 962,
      "ഷ": 963,
      "സ": 964,
      "ഹ": 965,
      "ാ": 966,
      "ി": 967,
      "ീ": 968,
      "ു": 969,
      "ൂ": 970,
      "െ": 971,
      "േ": 972,
      "്": 973,
      "ൻ": 974,
      "ർ": 975,
      "ൽ": 976,
      "ൾ": 977,
      "ก": 978,
      "ข": 979,
      "ค": 980,
      "ง": 981,
      "จ": 982,
      "ช": 983,
      "ซ": 984,
      "ญ": 985,
      "ฐ": 986,
      "ด": 987,
      "ต": 988,
      "ถ": 989,
      "ท": 990,
      "น": 991,
      "บ": 992,
      "ป": 993,
      "ผ": 994,
      "พ": 995,
      "ฟ": 996,
      "ม": 997,
      "ย": 998,
      "ร": 999,
      "ล": 1000,
      "ว": 1001,
      "ษ": 1002,
      "ส": 1003,
      "ห": 1004,
      "อ": 1005,
      "ะ": 1006,
      "ั": 1007,
      "า": 1008,
      "ิ": 1009,
      "ี": 1010,
      "ึ": 1011,
      "ื": 1012,
      "ุ": 1013,
      "ู": 1014,
      "เ": 1015,
      "แ": 1016,
      "โ": 1017,
      "ใ": 1018,
      "ไ": 1019,
      "ๆ": 1020,
      "็": 1021,
      "่": 1022,
      "้": 1023,
      "๋": 1024,
      "์": 1025,
      "ກ": 1026,
      "ຂ": 1027,
      "ຄ": 1028,
      "ງ": 1029,
      "ຈ": 1030,
      "ຊ": 1031,
      "ຍ": 1032,
      "ດ": 1033,
      "ຕ": 1034,
      "ຖ": 1035,
      "ທ": 1036,
      "ນ": 1037,
      "ບ": 1038,
      "ປ": 1039,
      "ຜ": 1040,
      "ພ": 1041,
      "ມ": 1042,
      "ຢ": 1043,
      "ຣ": 1044,
      "ລ": 1045,
      "ວ": 1046,
      "ສ": 1047,
      "ຫ": 1048,
      "ຬ": 1049,
      "ອ": 1050,
      "ຮ": 1051,
      "ະ": 1052,
      "ັ": 1053,
      "າ": 1054,
      "ິ": 1055,
      "ີ": 1056,
      "ຶ": 1057,
      "ື": 1058,
      "ຸ": 1059,
      "ູ": 1060,
      "ົ": 1061,
      "ຼ": 1062,
      "ເ": 1063,
      "ແ": 1064,
      "ໂ": 1065,
      "ໃ": 1066,
      "ໄ": 1067,
      "່": 1068,
      "້": 1069,
      "໌": 1070,
      "ໍ": 1071,
      "က": 1072,
      "င": 1073,
      "စ": 1074,
      "န": 1075,
      "ပ": 1076,
      "ဖ": 1077,
      "ယ": 1078,
      "ါ": 1079,
      "ာ": 1080,
      "ေ": 1081,
      "း": 1082,
      "်": 1083,
      "ျ": 1084,
      "ြ": 1085,
      "ွ": 1086,
      "ა": 1087,
      "ბ": 1088,
      "ე": 1089,
      "ვ": 1090,
      "ი": 1091,
      "ლ": 1092,
      "ნ": 1093,
      "ო": 1094,
      "ს": 1095,
      "ტ": 1096,
      "ᄀ": 1097,
      "ᄁ": 1098,
      "ᄂ": 1099,
      "ᄃ": 1100,
      "ᄄ": 1101,
      "ᄅ": 1102,
      "ᄆ": 1103,
      "ᄇ": 1104,
      "ᄈ": 1105,
      "ᄉ": 1106,
      "ᄊ": 1107,
      "ᄋ": 1108,
      "ᄌ": 1109,
      "ᄍ": 1110,
      "ᄎ": 1111,
      "ᄏ": 1112,
      "ᄐ": 1113,
      "ᄑ": 1114,
      "ᄒ": 1115,
      "ᅌ": 1116,
      "ᅡ": 1117,
      "ᅣ": 1118,
      "ᅥ": 1119,
      "ᅦ": 1120,
      "ᅧ": 1121,
      "ᅩ": 1122,
      "ᅭ": 1123,
      "ᅮ": 1124,
      "ᅲ": 1125,
      "ᅳ": 1126,
      "ᅵ": 1127,
      "ᆞ": 1128,
      "ሀ": 1129,
      "ሁ": 1130,
      "ህ": 1131,
      "ሆ": 1132,
      "ለ": 1133,
      "ሉ": 1134,
      "ል": 1135,
      "ሐ": 1136,
      "መ": 1137,
      "ሚ": 1138,
      "ም": 1139,
      "ሥ": 1140,
      "ር": 1141,
      "ሮ": 1142,
      "ስ": 1143,
      "ቐ": 1144,
      "በ": 1145,
      "ቦ": 1146,
      "ተ": 1147,
      "ታ": 1148,
      "ት": 1149,
      "ቸ": 1150,
      "ቹ": 1151,
      "ች": 1152,
      "ነ": 1153,
      "ና": 1154,
      "ኔ": 1155,
      "ን": 1156,
      "ኙ": 1157,
      "ኛ": 1158,
      "አ": 1159,
      "ኢ": 1160,
      "ኣ": 1161,
      "እ": 1162,
      "ከ": 1163,
      "ካ": 1164,
      "ኸ": 1165,
      "ወ": 1166,
      "ዊ": 1167,
      "ው": 1168,
      "ዎ": 1169,
      "ዓ": 1170,
      "ዝ": 1171,
      "የ": 1172,
      "ዩ": 1173,
      "ያ": 1174,
      "ይ": 1175,
      "ዮ": 1176,
      "ደ": 1177,
      "ዲ": 1178,
      "ዳ": 1179,
      "ዴ": 1180,
      "ገ": 1181,
      "ግ": 1182,
      "ጵ": 1183,
      "ፐ": 1184,
      "፡": 1185,
      "።": 1186,
      "፤": 1187,
      "ᚂ": 1188,
      "ᚇ": 1189,
      "ᚋ": 1190,
      "ᚏ": 1191,
      "ᚐ": 1192,
      "ᚔ": 1193,
      "᚛": 1194,
      "᚜": 1195,
      "ក": 1196,
      "ដ": 1197,
      "ត": 1198,
      "ទ": 1199,
      "ន": 1200,
      "ប": 1201,
      "ព": 1202,
      "ម": 1203,
      "យ": 1204,
      "រ": 1205,
      "ល": 1206,
      "ស": 1207,
      "អ": 1208,
      "ា": 1209,
      "ី": 1210,
      "ួ": 1211,
      "ើ": 1212,
      "េ": 1213,
      "ែ": 1214,
      "់": 1215,
      "្": 1216,
      "ᵼ": 1217,
      "ḍ": 1218,
      "ḏ": 1219,
      "ḗ": 1220,
      "Ḥ": 1221,
      "ḥ": 1222,
      "ḧ": 1223,
      "ḫ": 1224,
      "ḵ": 1225,
      "ḷ": 1226,
      "ṁ": 1227,
      "ṃ": 1228,
      "ṅ": 1229,
      "ṇ": 1230,
      "Ṉ": 1231,
      "ṉ": 1232,
      "ṓ": 1233,
      "ṙ": 1234,
      "Ṛ": 1235,
      "ṛ": 1236,
      "ṟ": 1237,
      "Ṣ": 1238,
      "ṣ": 1239,
      "Ṭ": 1240,
      "ṭ": 1241,
      "ṯ": 1242,
      "ṱ": 1243,
      "ẋ": 1244,
      "ẍ": 1245,
      "ẓ": 1246,
      "ẖ": 1247,
      "ạ": 1248,
      "ả": 1249,
      "ấ": 1250,
      "ầ": 1251,
      "ẫ": 1252,
      "ậ": 1253,
      "ắ": 1254,
      "ằ": 1255,
      "ẳ": 1256,
      "ặ": 1257,
      "Ẹ": 1258,
      "ẹ": 1259,
      "ẻ": 1260,
      "ẽ": 1261,
      "ế": 1262,
      "ề": 1263,
      "ể": 1264,
      "ễ": 1265,
      "ệ": 1266,
      "ỉ": 1267,
      "ị": 1268,
      "Ọ": 1269,
      "ọ": 1270,
      "ỏ": 1271,
      "Ố": 1272,
      "ố": 1273,
      "ồ": 1274,
      "ổ": 1275,
      "ỗ": 1276,
      "ộ": 1277,
      "ớ": 1278,
      "ờ": 1279,
      "ở": 1280,
      "ỡ": 1281,
      "ợ": 1282,
      "ụ": 1283,
      "ủ": 1284,
      "ứ": 1285,
      "ừ": 1286,
      "ử": 1287,
      "ữ": 1288,
      "ự": 1289,
      "ỹ": 1290,
      "ἀ": 1291,
      "ἄ": 1292,
      "Ἀ": 1293,
      "Ἄ": 1294,
      "ἐ": 1295,
      "ἑ": 1296,
      "ἓ": 1297,
      "ἔ": 1298,
      "Ἐ": 1299,
      "Ἕ": 1300,
      "ἡ": 1301,
      "ἦ": 1302,
      "ἰ": 1303,
      "ἱ": 1304,
      "ἴ": 1305,
      "ἶ": 1306,
      "Ἰ": 1307,
      "ὀ": 1308,
      "ὁ": 1309,
      "ὄ": 1310,
      "ὅ": 1311,
      "ὐ": 1312,
      "ὑ": 1313,
      "ὔ": 1314,
      "ὕ": 1315,
      "ὡ": 1316,
      "ὧ": 1317,
      "Ὦ": 1318,
      "ὰ": 1319,
      "ὲ": 1320,
      "ὴ": 1321,
      "ὶ": 1322,
      "ὸ": 1323,
      "ὺ": 1324,
      "ὼ": 1325,
      "ᾖ": 1326,
      "ᾳ": 1327,
      "ᾷ": 1328,
      "ῃ": 1329,
      "ῆ": 1330,
      "ῇ": 1331,
      "ῖ": 1332,
      "ῥ": 1333,
      "ῦ": 1334,
      "ῳ": 1335,
      "ῶ": 1336,
      "ῷ": 1337,
      "​": 1338,
      "‌": 1339,
      "‍": 1340,
      "‎": 1341,
      "‐": 1342,
      "–": 1343,
      "—": 1344,
      "‘": 1345,
      "’": 1346,
      "‚": 1347,
      "“": 1348,
      "”": 1349,
      "„": 1350,
      "†": 1351,
      "‡": 1352,
      "•": 1353,
      "‧": 1354,
      "‰": 1355,
      "′": 1356,
      "‹": 1357,
      "›": 1358,
      "‽": 1359,
      "‿": 1360,
      "⁄": 1361,
      "⁎": 1362,
      "⁡": 1363,
      "₦": 1364,
      "€": 1365,
      "₹": 1366,
      "⃗": 1367,
      "⃣": 1368,
      "℞": 1369,
      "←": 1370,
      "↑": 1371,
      "→": 1372,
      "↓": 1373,
      "↔": 1374,
      "↙": 1375,
      "↦": 1376,
      "↵": 1377,
      "⇌": 1378,
      "⇐": 1379,
      "⇒": 1380,
      "⇔": 1381,
      "⇧": 1382,
      "∀": 1383,
      "∂": 1384,
      "∃": 1385,
      "∅": 1386,
      "∆": 1387,
      "∇": 1388,
      "∈": 1389,
      "∉": 1390,
      "∎": 1391,
      "∏": 1392,
      "∑": 1393,
      "−": 1394,
      "∓": 1395,
      "∖": 1396,
      "∗": 1397,
      "∘": 1398,
      "√": 1399,
      "∛": 1400,
      "∝": 1401,
      "∞": 1402,
      "∠": 1403,
      "∣": 1404,
      "∤": 1405,
      "∥": 1406,
      "∧": 1407,
      "∨": 1408,
      "∩": 1409,
      "∪": 1410,
      "∫": 1411,
      "∮": 1412,
      "∴": 1413,
      "∶": 1414,
      "∼": 1415,
      "≃": 1416,
      "≅": 1417,
      "≈": 1418,
      "≔": 1419,
      "≠": 1420,
      "≡": 1421,
      "≤": 1422,
      "≥": 1423,
      "≪": 1424,
      "≺": 1425,
      "≻": 1426,
      "⊂": 1427,
      "⊆": 1428,
      "⊇": 1429,
      "⊊": 1430,
      "⊕": 1431,
      "⊗": 1432,
      "⊙": 1433,
      "⊞": 1434,
      "⊢": 1435,
      "⊤": 1436,
      "⊥": 1437,
      "⊧": 1438,
      "⊨": 1439,
      "⋀": 1440,
      "⋁": 1441,
      "⋂": 1442,
      "⋃": 1443,
      "⋅": 1444,
      "⋆": 1445,
      "⋈": 1446,
      "⋮": 1447,
      "⋯": 1448,
      "⌃": 1449,
      "⌈": 1450,
      "⌉": 1451,
      "⌊": 1452,
      "⌋": 1453,
      "⌘": 1454,
      "⌚": 1455,
      "⌛": 1456,
      "⌨": 1457,
      "⌫": 1458,
      "⎓": 1459,
      "⎧": 1460,
      "⎨": 1461,
      "⎩": 1462,
      "⏎": 1463,
      "⏟": 1464,
      "⏩": 1465,
      "⏪": 1466,
      "⏰": 1467,
      "⏱": 1468,
      "⏳": 1469,
      "␔": 1470,
      "─": 1471,
      "│": 1472,
      "┌": 1473,
      "┐": 1474,
      "└": 1475,
      "┘": 1476,
      "├": 1477,
      "┤": 1478,
      "┬": 1479,
      "┴": 1480,
      "┼": 1481,
      "╵": 1482,
      "■": 1483,
      "□": 1484,
      "▮": 1485,
      "▲": 1486,
      "△": 1487,
      "▶": 1488,
      "▼": 1489,
      "◁": 1490,
      "◇": 1491,
      "○": 1492,
      "◌": 1493,
      "●": 1494,
      "◻": 1495,
      "◼": 1496,
      "☀": 1497,
      "☁": 1498,
      "☂": 1499,
      "☃": 1500,
      "☄": 1501,
      "★": 1502,
      "☆": 1503,
      "☉": 1504,
      "☊": 1505,
      "☎": 1506,
      "☔": 1507,
      "☕": 1508,
      "☞": 1509,
      "☠": 1510,
      "☥": 1511,
      "☧": 1512,
      "☮": 1513,
      "☹": 1514,
      "☿": 1515,
      "♀": 1516,
      "♂": 1517,
      "♃": 1518,
      "♄": 1519,
      "♛": 1520,
      "♠": 1521,
      "♣": 1522,
      "♥": 1523,
      "♦": 1524,
      "♨": 1525,
      "♫": 1526,
      "♭": 1527,
      "♮": 1528,
      "♯": 1529,
      "♻": 1530,
      "♾": 1531,
      "⚀": 1532,
      "⚁": 1533,
      "⚂": 1534,
      "⚃": 1535,
      "⚄": 1536,
      "⚒": 1537,
      "⚓": 1538,
      "⚔": 1539,
      "⚕": 1540,
      "⚖": 1541,
      "⚗": 1542,
      "⚙": 1543,
      "⚛": 1544,
      "⚠": 1545,
      "⚡": 1546,
      "⚪": 1547,
      "⚫": 1548,
      "⚱": 1549,
      "⚽": 1550,
      "⚾": 1551,
      "⛅": 1552,
      "⛈": 1553,
      "⛏": 1554,
      "⛓": 1555,
      "⛔": 1556,
      "⛤": 1557,
      "⛩": 1558,
      "⛪": 1559,
      "⛰": 1560,
      "⛱": 1561,
      "⛲": 1562,
      "⛴": 1563,
      "⛵": 1564,
      "⛷": 1565,
      "⛹": 1566,
      "⛺": 1567,
      "⛽": 1568,
      "✂": 1569,
      "✅": 1570,
      "✈": 1571,
      "✉": 1572,
      "✊": 1573,
      "✋": 1574,
      "✌": 1575,
      "✍": 1576,
      "✏": 1577,
      "✒": 1578,
      "✓": 1579,
      "✔": 1580,
      "✖": 1581,
      "✝": 1582,
      "✡": 1583,
      "✨": 1584,
      "✪": 1585,
      "✰": 1586,
      "❄": 1587,
      "❌": 1588,
      "❓": 1589,
      "❣": 1590,
      "❤": 1591,
      "➔": 1592,
      "➕": 1593,
      "➖": 1594,
      "➗": 1595,
      "➡": 1596,
      "⟨": 1597,
      "⟩": 1598,
      "⟶": 1599,
      "⟹": 1600,
      "⟺": 1601,
      "⧫": 1602,
      "⨁": 1603,
      "⫏": 1604,
      "⫐": 1605,
      "⬇": 1606,
      "⬛": 1607,
      "⬜": 1608,
      "⬤": 1609,
      "⭐": 1610,
      "⭕": 1611,
      "、": 1612,
      "。": 1613,
      "々": 1614,
      "〈": 1615,
      "〉": 1616,
      "《": 1617,
      "》": 1618,
      "「": 1619,
      "」": 1620,
      "ぁ": 1621,
      "あ": 1622,
      "い": 1623,
      "う": 1624,
      "え": 1625,
      "お": 1626,
      "か": 1627,
      "が": 1628,
      "き": 1629,
      "ぎ": 1630,
      "く": 1631,
      "け": 1632,
      "げ": 1633,
      "こ": 1634,
      "ご": 1635,
      "さ": 1636,
      "ざ": 1637,
      "し": 1638,
      "じ": 1639,
      "す": 1640,
      "ず": 1641,
      "せ": 1642,
      "ぜ": 1643,
      "そ": 1644,
      "た": 1645,
      "だ": 1646,
      "ち": 1647,
      "ぢ": 1648,
      "っ": 1649,
      "つ": 1650,
      "づ": 1651,
      "て": 1652,
      "で": 1653,
      "と": 1654,
      "ど": 1655,
      "な": 1656,
      "に": 1657,
      "ぬ": 1658,
      "ね": 1659,
      "の": 1660,
      "は": 1661,
      "ば": 1662,
      "ひ": 1663,
      "び": 1664,
      "ぶ": 1665,
      "へ": 1666,
      "べ": 1667,
      "ぼ": 1668,
      "ま": 1669,
      "み": 1670,
      "む": 1671,
      "め": 1672,
      "も": 1673,
      "ゃ": 1674,
      "や": 1675,
      "ゆ": 1676,
      "ょ": 1677,
      "よ": 1678,
      "ら": 1679,
      "り": 1680,
      "る": 1681,
      "れ": 1682,
      "ろ": 1683,
      "わ": 1684,
      "を": 1685,
      "ん": 1686,
      "ァ": 1687,
      "ア": 1688,
      "ィ": 1689,
      "イ": 1690,
      "ウ": 1691,
      "ェ": 1692,
      "エ": 1693,
      "ォ": 1694,
      "オ": 1695,
      "カ": 1696,
      "ガ": 1697,
      "キ": 1698,
      "ギ": 1699,
      "ク": 1700,
      "グ": 1701,
      "ケ": 1702,
      "ゲ": 1703,
      "コ": 1704,
      "ゴ": 1705,
      "サ": 1706,
      "ザ": 1707,
      "シ": 1708,
      "ジ": 1709,
      "ス": 1710,
      "ズ": 1711,
      "セ": 1712,
      "ゼ": 1713,
      "ソ": 1714,
      "タ": 1715,
      "ダ": 1716,
      "チ": 1717,
      "ッ": 1718,
      "ツ": 1719,
      "テ": 1720,
      "デ": 1721,
      "ト": 1722,
      "ド": 1723,
      "ナ": 1724,
      "ニ": 1725,
      "ネ": 1726,
      "ノ": 1727,
      "ハ": 1728,
      "バ": 1729,
      "パ": 1730,
      "ビ": 1731,
      "ピ": 1732,
      "フ": 1733,
      "ブ": 1734,
      "プ": 1735,
      "ベ": 1736,
      "ボ": 1737,
      "ポ": 1738,
      "マ": 1739,
      "ミ": 1740,
      "ム": 1741,
      "メ": 1742,
      "モ": 1743,
      "ャ": 1744,
      "ヤ": 1745,
      "ュ": 1746,
      "ユ": 1747,
      "ョ": 1748,
      "ヨ": 1749,
      "ラ": 1750,
      "リ": 1751,
      "ル": 1752,
      "レ": 1753,
      "ロ": 1754,
      "ワ": 1755,
      "ヲ": 1756,
      "ン": 1757,
      "ヴ": 1758,
      "ヶ": 1759,
      "・": 1760,
      "ー": 1761,
      "㇐": 1762,
      "一": 1763,
      "丁": 1764,
      "七": 1765,
      "万": 1766,
      "丈": 1767,
      "三": 1768,
      "上": 1769,
      "下": 1770,
      "不": 1771,
      "与": 1772,
      "且": 1773,
      "世": 1774,
      "业": 1775,
      "丛": 1776,
      "东": 1777,
      "丝": 1778,
      "両": 1779,
      "两": 1780,
      "严": 1781,
      "丧": 1782,
      "丨": 1783,
      "个": 1784,
      "中": 1785,
      "串": 1786,
      "丸": 1787,
      "丹": 1788,
      "为": 1789,
      "主": 1790,
      "举": 1791,
      "丿": 1792,
      "久": 1793,
      "么": 1794,
      "义": 1795,
      "之": 1796,
      "乎": 1797,
      "乐": 1798,
      "乒": 1799,
      "乓": 1800,
      "乗": 1801,
      "乘": 1802,
      "乜": 1803,
      "九": 1804,
      "乞": 1805,
      "也": 1806,
      "习": 1807,
      "乡": 1808,
      "书": 1809,
      "乾": 1810,
      "亅": 1811,
      "了": 1812,
      "予": 1813,
      "争": 1814,
      "事": 1815,
      "二": 1816,
      "于": 1817,
      "云": 1818,
      "五": 1819,
      "亚": 1820,
      "些": 1821,
      "交": 1822,
      "享": 1823,
      "京": 1824,
      "亭": 1825,
      "亮": 1826,
      "亲": 1827,
      "人": 1828,
      "什": 1829,
      "仁": 1830,
      "仄": 1831,
      "今": 1832,
      "介": 1833,
      "仍": 1834,
      "从": 1835,
      "仏": 1836,
      "仔": 1837,
      "仕": 1838,
      "他": 1839,
      "仙": 1840,
      "代": 1841,
      "令": 1842,
      "以": 1843,
      "们": 1844,
      "仮": 1845,
      "仲": 1846,
      "件": 1847,
      "价": 1848,
      "任": 1849,
      "仿": 1850,
      "伊": 1851,
      "休": 1852,
      "众": 1853,
      "优": 1854,
      "会": 1855,
      "传": 1856,
      "伤": 1857,
      "伦": 1858,
      "伯": 1859,
      "估": 1860,
      "伶": 1861,
      "似": 1862,
      "但": 1863,
      "位": 1864,
      "低": 1865,
      "住": 1866,
      "佐": 1867,
      "体": 1868,
      "何": 1869,
      "余": 1870,
      "佛": 1871,
      "作": 1872,
      "你": 1873,
      "佳": 1874,
      "使": 1875,
      "來": 1876,
      "例": 1877,
      "侍": 1878,
      "供": 1879,
      "侠": 1880,
      "価": 1881,
      "侯": 1882,
      "係": 1883,
      "促": 1884,
      "俗": 1885,
      "保": 1886,
      "俠": 1887,
      "信": 1888,
      "修": 1889,
      "俱": 1890,
      "個": 1891,
      "倍": 1892,
      "們": 1893,
      "候": 1894,
      "借": 1895,
      "倣": 1896,
      "値": 1897,
      "值": 1898,
      "倾": 1899,
      "偏": 1900,
      "做": 1901,
      "健": 1902,
      "偶": 1903,
      "偿": 1904,
      "傅": 1905,
      "傘": 1906,
      "储": 1907,
      "傳": 1908,
      "像": 1909,
      "僕": 1910,
      "儀": 1911,
      "優": 1912,
      "儿": 1913,
      "元": 1914,
      "兄": 1915,
      "先": 1916,
      "光": 1917,
      "克": 1918,
      "兑": 1919,
      "兒": 1920,
      "党": 1921,
      "入": 1922,
      "內": 1923,
      "全": 1924,
      "兩": 1925,
      "八": 1926,
      "公": 1927,
      "六": 1928,
      "兰": 1929,
      "关": 1930,
      "兴": 1931,
      "其": 1932,
      "兼": 1933,
      "内": 1934,
      "円": 1935,
      "冇": 1936,
      "再": 1937,
      "写": 1938,
      "军": 1939,
      "农": 1940,
      "冠": 1941,
      "冬": 1942,
      "冯": 1943,
      "冰": 1944,
      "决": 1945,
      "况": 1946,
      "冷": 1947,
      "准": 1948,
      "凌": 1949,
      "减": 1950,
      "凤": 1951,
      "処": 1952,
      "凰": 1953,
      "出": 1954,
      "击": 1955,
      "函": 1956,
      "刀": 1957,
      "分": 1958,
      "切": 1959,
      "刈": 1960,
      "划": 1961,
      "列": 1962,
      "刘": 1963,
      "创": 1964,
      "初": 1965,
      "删": 1966,
      "判": 1967,
      "別": 1968,
      "利": 1969,
      "别": 1970,
      "到": 1971,
      "制": 1972,
      "刷": 1973,
      "刺": 1974,
      "刻": 1975,
      "則": 1976,
      "前": 1977,
      "剧": 1978,
      "副": 1979,
      "割": 1980,
      "劇": 1981,
      "劉": 1982,
      "力": 1983,
      "功": 1984,
      "加": 1985,
      "务": 1986,
      "动": 1987,
      "助": 1988,
      "効": 1989,
      "勇": 1990,
      "勉": 1991,
      "動": 1992,
      "務": 1993,
      "勧": 1994,
      "勿": 1995,
      "包": 1996,
      "匈": 1997,
      "化": 1998,
      "北": 1999,
      "匠": 2000,
      "区": 2001,
      "医": 2002,
      "區": 2003,
      "十": 2004,
      "千": 2005,
      "升": 2006,
      "午": 2007,
      "半": 2008,
      "华": 2009,
      "卐": 2010,
      "協": 2011,
      "单": 2012,
      "卖": 2013,
      "南": 2014,
      "単": 2015,
      "博": 2016,
      "占": 2017,
      "印": 2018,
      "危": 2019,
      "即": 2020,
      "卷": 2021,
      "卿": 2022,
      "厅": 2023,
      "历": 2024,
      "压": 2025,
      "厌": 2026,
      "厚": 2027,
      "原": 2028,
      "厥": 2029,
      "去": 2030,
      "参": 2031,
      "參": 2032,
      "又": 2033,
      "叉": 2034,
      "及": 2035,
      "友": 2036,
      "反": 2037,
      "収": 2038,
      "发": 2039,
      "取": 2040,
      "受": 2041,
      "变": 2042,
      "口": 2043,
      "古": 2044,
      "句": 2045,
      "只": 2046,
      "叫": 2047,
      "可": 2048,
      "台": 2049,
      "史": 2050,
      "号": 2051,
      "司": 2052,
      "吃": 2053,
      "合": 2054,
      "同": 2055,
      "名": 2056,
      "后": 2057,
      "向": 2058,
      "吗": 2059,
      "君": 2060,
      "吞": 2061,
      "否": 2062,
      "吧": 2063,
      "含": 2064,
      "听": 2065,
      "吳": 2066,
      "吴": 2067,
      "吸": 2068,
      "吾": 2069,
      "呀": 2070,
      "呂": 2071,
      "告": 2072,
      "员": 2073,
      "呢": 2074,
      "周": 2075,
      "味": 2076,
      "命": 2077,
      "和": 2078,
      "咖": 2079,
      "咗": 2080,
      "咩": 2081,
      "咲": 2082,
      "咸": 2083,
      "哀": 2084,
      "品": 2085,
      "哈": 2086,
      "响": 2087,
      "哥": 2088,
      "哪": 2089,
      "哭": 2090,
      "哲": 2091,
      "唐": 2092,
      "唔": 2093,
      "唤": 2094,
      "商": 2095,
      "啊": 2096,
      "問": 2097,
      "啱": 2098,
      "啲": 2099,
      "善": 2100,
      "喋": 2101,
      "喜": 2102,
      "喝": 2103,
      "單": 2104,
      "喱": 2105,
      "嗎": 2106,
      "嘛": 2107,
      "噌": 2108,
      "器": 2109,
      "囃": 2110,
      "四": 2111,
      "回": 2112,
      "因": 2113,
      "园": 2114,
      "困": 2115,
      "固": 2116,
      "国": 2117,
      "图": 2118,
      "圆": 2119,
      "國": 2120,
      "園": 2121,
      "圓": 2122,
      "圖": 2123,
      "土": 2124,
      "在": 2125,
      "圭": 2126,
      "地": 2127,
      "场": 2128,
      "均": 2129,
      "坊": 2130,
      "块": 2131,
      "坚": 2132,
      "坞": 2133,
      "型": 2134,
      "城": 2135,
      "域": 2136,
      "基": 2137,
      "堀": 2138,
      "堂": 2139,
      "堯": 2140,
      "報": 2141,
      "場": 2142,
      "塗": 2143,
      "塘": 2144,
      "境": 2145,
      "増": 2146,
      "墙": 2147,
      "增": 2148,
      "墨": 2149,
      "壁": 2150,
      "壓": 2151,
      "士": 2152,
      "声": 2153,
      "壽": 2154,
      "处": 2155,
      "変": 2156,
      "复": 2157,
      "夏": 2158,
      "外": 2159,
      "多": 2160,
      "夜": 2161,
      "够": 2162,
      "夢": 2163,
      "大": 2164,
      "天": 2165,
      "太": 2166,
      "夫": 2167,
      "失": 2168,
      "头": 2169,
      "奇": 2170,
      "契": 2171,
      "女": 2172,
      "奴": 2173,
      "奶": 2174,
      "她": 2175,
      "好": 2176,
      "如": 2177,
      "妈": 2178,
      "妖": 2179,
      "姊": 2180,
      "始": 2181,
      "姐": 2182,
      "姓": 2183,
      "姫": 2184,
      "姻": 2185,
      "姿": 2186,
      "娛": 2187,
      "娜": 2188,
      "婆": 2189,
      "婚": 2190,
      "婷": 2191,
      "媒": 2192,
      "媧": 2193,
      "媽": 2194,
      "嬤": 2195,
      "子": 2196,
      "字": 2197,
      "存": 2198,
      "孙": 2199,
      "孝": 2200,
      "孟": 2201,
      "孤": 2202,
      "学": 2203,
      "孩": 2204,
      "孫": 2205,
      "學": 2206,
      "宀": 2207,
      "它": 2208,
      "宇": 2209,
      "守": 2210,
      "安": 2211,
      "宋": 2212,
      "完": 2213,
      "官": 2214,
      "宙": 2215,
      "定": 2216,
      "实": 2217,
      "実": 2218,
      "客": 2219,
      "宣": 2220,
      "室": 2221,
      "宫": 2222,
      "害": 2223,
      "家": 2224,
      "容": 2225,
      "宽": 2226,
      "密": 2227,
      "富": 2228,
      "寝": 2229,
      "察": 2230,
      "實": 2231,
      "寧": 2232,
      "寶": 2233,
      "寸": 2234,
      "对": 2235,
      "寺": 2236,
      "导": 2237,
      "対": 2238,
      "寿": 2239,
      "封": 2240,
      "射": 2241,
      "将": 2242,
      "尊": 2243,
      "尋": 2244,
      "對": 2245,
      "導": 2246,
      "小": 2247,
      "少": 2248,
      "尔": 2249,
      "尖": 2250,
      "尝": 2251,
      "就": 2252,
      "尺": 2253,
      "尼": 2254,
      "尽": 2255,
      "层": 2256,
      "屈": 2257,
      "屌": 2258,
      "展": 2259,
      "属": 2260,
      "層": 2261,
      "山": 2262,
      "岐": 2263,
      "岛": 2264,
      "島": 2265,
      "崎": 2266,
      "嵐": 2267,
      "川": 2268,
      "州": 2269,
      "巡": 2270,
      "工": 2271,
      "巨": 2272,
      "差": 2273,
      "己": 2274,
      "已": 2275,
      "巻": 2276,
      "币": 2277,
      "市": 2278,
      "布": 2279,
      "帆": 2280,
      "师": 2281,
      "帘": 2282,
      "帝": 2283,
      "带": 2284,
      "師": 2285,
      "帮": 2286,
      "帯": 2287,
      "帰": 2288,
      "帳": 2289,
      "常": 2290,
      "幅": 2291,
      "幕": 2292,
      "幫": 2293,
      "干": 2294,
      "平": 2295,
      "年": 2296,
      "并": 2297,
      "幸": 2298,
      "幹": 2299,
      "幽": 2300,
      "幾": 2301,
      "广": 2302,
      "庄": 2303,
      "床": 2304,
      "序": 2305,
      "应": 2306,
      "底": 2307,
      "店": 2308,
      "度": 2309,
      "座": 2310,
      "康": 2311,
      "廣": 2312,
      "廳": 2313,
      "廴": 2314,
      "延": 2315,
      "建": 2316,
      "开": 2317,
      "弁": 2318,
      "式": 2319,
      "引": 2320,
      "弟": 2321,
      "张": 2322,
      "張": 2323,
      "強": 2324,
      "强": 2325,
      "归": 2326,
      "当": 2327,
      "录": 2328,
      "形": 2329,
      "彦": 2330,
      "彪": 2331,
      "影": 2332,
      "彼": 2333,
      "往": 2334,
      "征": 2335,
      "径": 2336,
      "很": 2337,
      "後": 2338,
      "徐": 2339,
      "得": 2340,
      "從": 2341,
      "復": 2342,
      "微": 2343,
      "德": 2344,
      "心": 2345,
      "必": 2346,
      "忆": 2347,
      "忍": 2348,
      "志": 2349,
      "忘": 2350,
      "忠": 2351,
      "快": 2352,
      "忽": 2353,
      "怀": 2354,
      "态": 2355,
      "怎": 2356,
      "怕": 2357,
      "思": 2358,
      "性": 2359,
      "怨": 2360,
      "怪": 2361,
      "总": 2362,
      "恋": 2363,
      "恩": 2364,
      "息": 2365,
      "悔": 2366,
      "您": 2367,
      "悪": 2368,
      "情": 2369,
      "惜": 2370,
      "想": 2371,
      "意": 2372,
      "愛": 2373,
      "感": 2374,
      "慈": 2375,
      "態": 2376,
      "慮": 2377,
      "慶": 2378,
      "應": 2379,
      "懐": 2380,
      "懒": 2381,
      "戎": 2382,
      "戏": 2383,
      "成": 2384,
      "我": 2385,
      "或": 2386,
      "战": 2387,
      "戦": 2388,
      "截": 2389,
      "戴": 2390,
      "户": 2391,
      "戻": 2392,
      "房": 2393,
      "所": 2394,
      "手": 2395,
      "才": 2396,
      "打": 2397,
      "扣": 2398,
      "执": 2399,
      "扩": 2400,
      "扰": 2401,
      "批": 2402,
      "找": 2403,
      "承": 2404,
      "技": 2405,
      "把": 2406,
      "投": 2407,
      "折": 2408,
      "抚": 2409,
      "护": 2410,
      "报": 2411,
      "抱": 2412,
      "拉": 2413,
      "拍": 2414,
      "择": 2415,
      "拳": 2416,
      "拿": 2417,
      "持": 2418,
      "指": 2419,
      "按": 2420,
      "损": 2421,
      "换": 2422,
      "据": 2423,
      "捷": 2424,
      "授": 2425,
      "排": 2426,
      "接": 2427,
      "推": 2428,
      "措": 2429,
      "描": 2430,
      "提": 2431,
      "揚": 2432,
      "握": 2433,
      "損": 2434,
      "搵": 2435,
      "摩": 2436,
      "摺": 2437,
      "播": 2438,
      "撲": 2439,
      "擅": 2440,
      "擇": 2441,
      "操": 2442,
      "支": 2443,
      "收": 2444,
      "改": 2445,
      "攻": 2446,
      "放": 2447,
      "政": 2448,
      "故": 2449,
      "效": 2450,
      "敏": 2451,
      "救": 2452,
      "敗": 2453,
      "教": 2454,
      "散": 2455,
      "敬": 2456,
      "数": 2457,
      "敲": 2458,
      "整": 2459,
      "敷": 2460,
      "數": 2461,
      "文": 2462,
      "料": 2463,
      "斜": 2464,
      "斯": 2465,
      "新": 2466,
      "方": 2467,
      "於": 2468,
      "施": 2469,
      "旁": 2470,
      "旅": 2471,
      "族": 2472,
      "既": 2473,
      "日": 2474,
      "旦": 2475,
      "早": 2476,
      "旬": 2477,
      "旭": 2478,
      "时": 2479,
      "昂": 2480,
      "昆": 2481,
      "昌": 2482,
      "明": 2483,
      "易": 2484,
      "星": 2485,
      "映": 2486,
      "春": 2487,
      "昨": 2488,
      "是": 2489,
      "昼": 2490,
      "显": 2491,
      "時": 2492,
      "晒": 2493,
      "晚": 2494,
      "景": 2495,
      "晴": 2496,
      "智": 2497,
      "暢": 2498,
      "暴": 2499,
      "曜": 2500,
      "曰": 2501,
      "曲": 2502,
      "更": 2503,
      "書": 2504,
      "曹": 2505,
      "曾": 2506,
      "最": 2507,
      "月": 2508,
      "有": 2509,
      "朋": 2510,
      "服": 2511,
      "望": 2512,
      "朝": 2513,
      "期": 2514,
      "木": 2515,
      "未": 2516,
      "末": 2517,
      "本": 2518,
      "札": 2519,
      "术": 2520,
      "朱": 2521,
      "朴": 2522,
      "朵": 2523,
      "机": 2524,
      "杂": 2525,
      "权": 2526,
      "李": 2527,
      "材": 2528,
      "村": 2529,
      "杓": 2530,
      "杜": 2531,
      "束": 2532,
      "条": 2533,
      "来": 2534,
      "東": 2535,
      "松": 2536,
      "板": 2537,
      "析": 2538,
      "枕": 2539,
      "林": 2540,
      "果": 2541,
      "枝": 2542,
      "柄": 2543,
      "染": 2544,
      "柳": 2545,
      "标": 2546,
      "树": 2547,
      "栖": 2548,
      "校": 2549,
      "株": 2550,
      "样": 2551,
      "核": 2552,
      "根": 2553,
      "格": 2554,
      "桥": 2555,
      "梦": 2556,
      "梯": 2557,
      "械": 2558,
      "棒": 2559,
      "棗": 2560,
      "棚": 2561,
      "森": 2562,
      "棺": 2563,
      "植": 2564,
      "椒": 2565,
      "検": 2566,
      "楊": 2567,
      "楚": 2568,
      "業": 2569,
      "極": 2570,
      "楷": 2571,
      "楸": 2572,
      "楼": 2573,
      "概": 2574,
      "槓": 2575,
      "様": 2576,
      "樂": 2577,
      "標": 2578,
      "模": 2579,
      "樣": 2580,
      "樸": 2581,
      "樹": 2582,
      "機": 2583,
      "次": 2584,
      "欢": 2585,
      "欣": 2586,
      "欺": 2587,
      "款": 2588,
      "歉": 2589,
      "歌": 2590,
      "歡": 2591,
      "止": 2592,
      "正": 2593,
      "此": 2594,
      "步": 2595,
      "武": 2596,
      "歩": 2597,
      "死": 2598,
      "残": 2599,
      "殘": 2600,
      "段": 2601,
      "毋": 2602,
      "母": 2603,
      "毎": 2604,
      "每": 2605,
      "比": 2606,
      "毛": 2607,
      "氏": 2608,
      "民": 2609,
      "气": 2610,
      "気": 2611,
      "氣": 2612,
      "水": 2613,
      "氵": 2614,
      "永": 2615,
      "汁": 2616,
      "求": 2617,
      "汉": 2618,
      "江": 2619,
      "池": 2620,
      "污": 2621,
      "汤": 2622,
      "汲": 2623,
      "決": 2624,
      "沒": 2625,
      "沙": 2626,
      "沟": 2627,
      "没": 2628,
      "沢": 2629,
      "沫": 2630,
      "河": 2631,
      "油": 2632,
      "治": 2633,
      "泉": 2634,
      "法": 2635,
      "泡": 2636,
      "波": 2637,
      "泥": 2638,
      "注": 2639,
      "泳": 2640,
      "泽": 2641,
      "洋": 2642,
      "洪": 2643,
      "洲": 2644,
      "活": 2645,
      "派": 2646,
      "流": 2647,
      "测": 2648,
      "济": 2649,
      "浒": 2650,
      "浴": 2651,
      "海": 2652,
      "消": 2653,
      "涛": 2654,
      "涣": 2655,
      "涨": 2656,
      "淇": 2657,
      "淋": 2658,
      "深": 2659,
      "添": 2660,
      "清": 2661,
      "済": 2662,
      "渐": 2663,
      "渡": 2664,
      "渦": 2665,
      "測": 2666,
      "港": 2667,
      "游": 2668,
      "湖": 2669,
      "湘": 2670,
      "湯": 2671,
      "湾": 2672,
      "湿": 2673,
      "源": 2674,
      "準": 2675,
      "溜": 2676,
      "溪": 2677,
      "滅": 2678,
      "滇": 2679,
      "滯": 2680,
      "演": 2681,
      "漢": 2682,
      "漫": 2683,
      "漱": 2684,
      "潭": 2685,
      "澳": 2686,
      "激": 2687,
      "濁": 2688,
      "瀕": 2689,
      "火": 2690,
      "灰": 2691,
      "灾": 2692,
      "炎": 2693,
      "炒": 2694,
      "炭": 2695,
      "炮": 2696,
      "炸": 2697,
      "点": 2698,
      "為": 2699,
      "烟": 2700,
      "烤": 2701,
      "烧": 2702,
      "热": 2703,
      "烷": 2704,
      "烹": 2705,
      "焖": 2706,
      "無": 2707,
      "然": 2708,
      "焼": 2709,
      "煎": 2710,
      "照": 2711,
      "煮": 2712,
      "熹": 2713,
      "燃": 2714,
      "燒": 2715,
      "燻": 2716,
      "爭": 2717,
      "爱": 2718,
      "爲": 2719,
      "父": 2720,
      "爸": 2721,
      "片": 2722,
      "牙": 2723,
      "牛": 2724,
      "物": 2725,
      "特": 2726,
      "犬": 2727,
      "状": 2728,
      "狐": 2729,
      "狗": 2730,
      "狩": 2731,
      "独": 2732,
      "狸": 2733,
      "猫": 2734,
      "献": 2735,
      "猶": 2736,
      "獄": 2737,
      "獅": 2738,
      "獲": 2739,
      "玄": 2740,
      "率": 2741,
      "王": 2742,
      "玩": 2743,
      "环": 2744,
      "现": 2745,
      "玲": 2746,
      "珍": 2747,
      "珠": 2748,
      "班": 2749,
      "現": 2750,
      "球": 2751,
      "理": 2752,
      "瑾": 2753,
      "環": 2754,
      "瓜": 2755,
      "瓢": 2756,
      "瓣": 2757,
      "瓦": 2758,
      "生": 2759,
      "產": 2760,
      "産": 2761,
      "用": 2762,
      "甫": 2763,
      "田": 2764,
      "由": 2765,
      "甲": 2766,
      "电": 2767,
      "男": 2768,
      "町": 2769,
      "画": 2770,
      "界": 2771,
      "略": 2772,
      "番": 2773,
      "畫": 2774,
      "異": 2775,
      "當": 2776,
      "疑": 2777,
      "疲": 2778,
      "病": 2779,
      "症": 2780,
      "痕": 2781,
      "療": 2782,
      "發": 2783,
      "白": 2784,
      "百": 2785,
      "的": 2786,
      "皆": 2787,
      "皇": 2788,
      "皮": 2789,
      "益": 2790,
      "盛": 2791,
      "盤": 2792,
      "盧": 2793,
      "目": 2794,
      "直": 2795,
      "相": 2796,
      "省": 2797,
      "看": 2798,
      "真": 2799,
      "眠": 2800,
      "着": 2801,
      "睡": 2802,
      "矣": 2803,
      "知": 2804,
      "矩": 2805,
      "短": 2806,
      "石": 2807,
      "码": 2808,
      "研": 2809,
      "破": 2810,
      "础": 2811,
      "确": 2812,
      "硯": 2813,
      "碗": 2814,
      "碰": 2815,
      "確": 2816,
      "示": 2817,
      "礼": 2818,
      "社": 2819,
      "祖": 2820,
      "神": 2821,
      "票": 2822,
      "祭": 2823,
      "祿": 2824,
      "禅": 2825,
      "福": 2826,
      "禪": 2827,
      "禮": 2828,
      "禹": 2829,
      "离": 2830,
      "秀": 2831,
      "私": 2832,
      "秋": 2833,
      "种": 2834,
      "科": 2835,
      "秒": 2836,
      "秦": 2837,
      "称": 2838,
      "移": 2839,
      "程": 2840,
      "稍": 2841,
      "稱": 2842,
      "積": 2843,
      "穴": 2844,
      "究": 2845,
      "空": 2846,
      "立": 2847,
      "站": 2848,
      "竞": 2849,
      "章": 2850,
      "童": 2851,
      "竹": 2852,
      "笑": 2853,
      "第": 2854,
      "筅": 2855,
      "筆": 2856,
      "等": 2857,
      "策": 2858,
      "签": 2859,
      "简": 2860,
      "算": 2861,
      "管": 2862,
      "箭": 2863,
      "箱": 2864,
      "節": 2865,
      "篆": 2866,
      "篇": 2867,
      "篮": 2868,
      "簡": 2869,
      "籍": 2870,
      "米": 2871,
      "类": 2872,
      "粉": 2873,
      "粒": 2874,
      "粤": 2875,
      "粥": 2876,
      "粱": 2877,
      "粽": 2878,
      "精": 2879,
      "糕": 2880,
      "糖": 2881,
      "糯": 2882,
      "糸": 2883,
      "系": 2884,
      "紀": 2885,
      "約": 2886,
      "紅": 2887,
      "紙": 2888,
      "級": 2889,
      "素": 2890,
      "索": 2891,
      "累": 2892,
      "紹": 2893,
      "終": 2894,
      "組": 2895,
      "経": 2896,
      "結": 2897,
      "絵": 2898,
      "絶": 2899,
      "經": 2900,
      "継": 2901,
      "続": 2902,
      "網": 2903,
      "綺": 2904,
      "緒": 2905,
      "線": 2906,
      "編": 2907,
      "練": 2908,
      "縛": 2909,
      "縣": 2910,
      "總": 2911,
      "繁": 2912,
      "红": 2913,
      "约": 2914,
      "纸": 2915,
      "纹": 2916,
      "线": 2917,
      "练": 2918,
      "组": 2919,
      "细": 2920,
      "织": 2921,
      "绍": 2922,
      "经": 2923,
      "结": 2924,
      "绕": 2925,
      "绘": 2926,
      "给": 2927,
      "络": 2928,
      "绝": 2929,
      "统": 2930,
      "绡": 2931,
      "绩": 2932,
      "续": 2933,
      "绰": 2934,
      "维": 2935,
      "绿": 2936,
      "缩": 2937,
      "网": 2938,
      "置": 2939,
      "羅": 2940,
      "美": 2941,
      "群": 2942,
      "義": 2943,
      "羲": 2944,
      "羽": 2945,
      "習": 2946,
      "翟": 2947,
      "老": 2948,
      "考": 2949,
      "者": 2950,
      "而": 2951,
      "耗": 2952,
      "耻": 2953,
      "聊": 2954,
      "职": 2955,
      "聚": 2956,
      "聞": 2957,
      "聪": 2958,
      "聲": 2959,
      "聽": 2960,
      "肉": 2961,
      "股": 2962,
      "肯": 2963,
      "育": 2964,
      "胡": 2965,
      "能": 2966,
      "脈": 2967,
      "脐": 2968,
      "腐": 2969,
      "腹": 2970,
      "自": 2971,
      "臭": 2972,
      "至": 2973,
      "致": 2974,
      "舉": 2975,
      "舒": 2976,
      "良": 2977,
      "色": 2978,
      "艾": 2979,
      "节": 2980,
      "花": 2981,
      "芳": 2982,
      "苏": 2983,
      "苗": 2984,
      "若": 2985,
      "苦": 2986,
      "英": 2987,
      "苹": 2988,
      "茅": 2989,
      "茶": 2990,
      "草": 2991,
      "莊": 2992,
      "莫": 2993,
      "莱": 2994,
      "莲": 2995,
      "获": 2996,
      "莽": 2997,
      "菌": 2998,
      "菓": 2999,
      "菜": 3000,
      "萄": 3001,
      "落": 3002,
      "葉": 3003,
      "著": 3004,
      "葛": 3005,
      "葡": 3006,
      "葭": 3007,
      "蒂": 3008,
      "蒙": 3009,
      "蒸": 3010,
      "蓝": 3011,
      "蕉": 3012,
      "蕪": 3013,
      "藕": 3014,
      "藝": 3015,
      "藤": 3016,
      "蘋": 3017,
      "虎": 3018,
      "虑": 3019,
      "虽": 3020,
      "虾": 3021,
      "蚵": 3022,
      "蛋": 3023,
      "蛟": 3024,
      "蛤": 3025,
      "蜊": 3026,
      "蝦": 3027,
      "蝴": 3028,
      "蝶": 3029,
      "行": 3030,
      "術": 3031,
      "街": 3032,
      "衛": 3033,
      "衡": 3034,
      "衣": 3035,
      "补": 3036,
      "表": 3037,
      "衫": 3038,
      "袈": 3039,
      "袋": 3040,
      "袓": 3041,
      "被": 3042,
      "裁": 3043,
      "装": 3044,
      "裕": 3045,
      "裟": 3046,
      "裡": 3047,
      "褙": 3048,
      "襦": 3049,
      "襪": 3050,
      "西": 3051,
      "要": 3052,
      "見": 3053,
      "視": 3054,
      "親": 3055,
      "観": 3056,
      "覺": 3057,
      "见": 3058,
      "观": 3059,
      "规": 3060,
      "视": 3061,
      "觉": 3062,
      "角": 3063,
      "解": 3064,
      "触": 3065,
      "言": 3066,
      "計": 3067,
      "訊": 3068,
      "訓": 3069,
      "記": 3070,
      "設": 3071,
      "許": 3072,
      "詞": 3073,
      "詢": 3074,
      "試": 3075,
      "詩": 3076,
      "詰": 3077,
      "話": 3078,
      "該": 3079,
      "誌": 3080,
      "認": 3081,
      "語": 3082,
      "誠": 3083,
      "說": 3084,
      "読": 3085,
      "誰": 3086,
      "課": 3087,
      "調": 3088,
      "談": 3089,
      "請": 3090,
      "論": 3091,
      "諸": 3092,
      "諾": 3093,
      "謀": 3094,
      "謙": 3095,
      "謝": 3096,
      "證": 3097,
      "識": 3098,
      "警": 3099,
      "議": 3100,
      "譲": 3101,
      "護": 3102,
      "變": 3103,
      "计": 3104,
      "认": 3105,
      "讨": 3106,
      "让": 3107,
      "训": 3108,
      "议": 3109,
      "记": 3110,
      "许": 3111,
      "论": 3112,
      "设": 3113,
      "证": 3114,
      "评": 3115,
      "识": 3116,
      "词": 3117,
      "试": 3118,
      "诗": 3119,
      "话": 3120,
      "该": 3121,
      "语": 3122,
      "误": 3123,
      "说": 3124,
      "请": 3125,
      "读": 3126,
      "谁": 3127,
      "谈": 3128,
      "谐": 3129,
      "谢": 3130,
      "豆": 3131,
      "象": 3132,
      "貪": 3133,
      "貶": 3134,
      "買": 3135,
      "費": 3136,
      "貿": 3137,
      "資": 3138,
      "賢": 3139,
      "質": 3140,
      "購": 3141,
      "负": 3142,
      "货": 3143,
      "贸": 3144,
      "资": 3145,
      "赔": 3146,
      "赛": 3147,
      "赢": 3148,
      "赤": 3149,
      "走": 3150,
      "起": 3151,
      "超": 3152,
      "越": 3153,
      "趣": 3154,
      "足": 3155,
      "跌": 3156,
      "跑": 3157,
      "距": 3158,
      "跟": 3159,
      "路": 3160,
      "踪": 3161,
      "身": 3162,
      "車": 3163,
      "軍": 3164,
      "載": 3165,
      "輪": 3166,
      "輸": 3167,
      "车": 3168,
      "转": 3169,
      "轮": 3170,
      "轴": 3171,
      "载": 3172,
      "较": 3173,
      "辑": 3174,
      "输": 3175,
      "辛": 3176,
      "辞": 3177,
      "辣": 3178,
      "辦": 3179,
      "辯": 3180,
      "農": 3181,
      "边": 3182,
      "込": 3183,
      "达": 3184,
      "迁": 3185,
      "迅": 3186,
      "过": 3187,
      "运": 3188,
      "近": 3189,
      "返": 3190,
      "还": 3191,
      "这": 3192,
      "进": 3193,
      "远": 3194,
      "违": 3195,
      "迟": 3196,
      "迭": 3197,
      "述": 3198,
      "迷": 3199,
      "迹": 3200,
      "追": 3201,
      "送": 3202,
      "适": 3203,
      "逃": 3204,
      "选": 3205,
      "逍": 3206,
      "递": 3207,
      "這": 3208,
      "通": 3209,
      "速": 3210,
      "造": 3211,
      "連": 3212,
      "週": 3213,
      "進": 3214,
      "逻": 3215,
      "遅": 3216,
      "遊": 3217,
      "運": 3218,
      "過": 3219,
      "道": 3220,
      "達": 3221,
      "遗": 3222,
      "遙": 3223,
      "遠": 3224,
      "適": 3225,
      "遷": 3226,
      "選": 3227,
      "遺": 3228,
      "邊": 3229,
      "那": 3230,
      "邦": 3231,
      "邮": 3232,
      "郎": 3233,
      "郝": 3234,
      "郡": 3235,
      "部": 3236,
      "郭": 3237,
      "都": 3238,
      "鄕": 3239,
      "酉": 3240,
      "配": 3241,
      "酒": 3242,
      "酱": 3243,
      "酸": 3244,
      "酿": 3245,
      "醋": 3246,
      "醫": 3247,
      "醬": 3248,
      "采": 3249,
      "里": 3250,
      "重": 3251,
      "野": 3252,
      "量": 3253,
      "金": 3254,
      "鉄": 3255,
      "鉴": 3256,
      "銀": 3257,
      "銃": 3258,
      "鋼": 3259,
      "錢": 3260,
      "錬": 3261,
      "鍋": 3262,
      "鎔": 3263,
      "鏈": 3264,
      "鏡": 3265,
      "鐘": 3266,
      "鐵": 3267,
      "鑒": 3268,
      "钱": 3269,
      "铁": 3270,
      "铠": 3271,
      "银": 3272,
      "链": 3273,
      "错": 3274,
      "長": 3275,
      "长": 3276,
      "門": 3277,
      "開": 3278,
      "閎": 3279,
      "間": 3280,
      "闇": 3281,
      "门": 3282,
      "闫": 3283,
      "问": 3284,
      "间": 3285,
      "闻": 3286,
      "阎": 3287,
      "队": 3288,
      "防": 3289,
      "阳": 3290,
      "阴": 3291,
      "阵": 3292,
      "阶": 3293,
      "阿": 3294,
      "陆": 3295,
      "陈": 3296,
      "陌": 3297,
      "降": 3298,
      "限": 3299,
      "院": 3300,
      "陣": 3301,
      "除": 3302,
      "陰": 3303,
      "陳": 3304,
      "陶": 3305,
      "険": 3306,
      "陽": 3307,
      "階": 3308,
      "随": 3309,
      "隐": 3310,
      "隔": 3311,
      "際": 3312,
      "隠": 3313,
      "隶": 3314,
      "难": 3315,
      "集": 3316,
      "雞": 3317,
      "離": 3318,
      "難": 3319,
      "雨": 3320,
      "雪": 3321,
      "電": 3322,
      "需": 3323,
      "震": 3324,
      "霊": 3325,
      "霜": 3326,
      "露": 3327,
      "霸": 3328,
      "靈": 3329,
      "青": 3330,
      "静": 3331,
      "靜": 3332,
      "非": 3333,
      "靠": 3334,
      "面": 3335,
      "革": 3336,
      "韩": 3337,
      "音": 3338,
      "響": 3339,
      "頂": 3340,
      "項": 3341,
      "順": 3342,
      "須": 3343,
      "頭": 3344,
      "顆": 3345,
      "題": 3346,
      "顔": 3347,
      "願": 3348,
      "顧": 3349,
      "顺": 3350,
      "须": 3351,
      "顿": 3352,
      "预": 3353,
      "领": 3354,
      "频": 3355,
      "题": 3356,
      "颜": 3357,
      "風": 3358,
      "风": 3359,
      "飛": 3360,
      "飞": 3361,
      "食": 3362,
      "飯": 3363,
      "飲": 3364,
      "飼": 3365,
      "餅": 3366,
      "餐": 3367,
      "館": 3368,
      "饪": 3369,
      "饭": 3370,
      "饰": 3371,
      "饺": 3372,
      "馆": 3373,
      "馈": 3374,
      "香": 3375,
      "馬": 3376,
      "駁": 3377,
      "駄": 3378,
      "駅": 3379,
      "験": 3380,
      "騫": 3381,
      "驗": 3382,
      "马": 3383,
      "骂": 3384,
      "验": 3385,
      "骨": 3386,
      "體": 3387,
      "高": 3388,
      "鬱": 3389,
      "鬼": 3390,
      "魂": 3391,
      "魅": 3392,
      "魔": 3393,
      "魘": 3394,
      "魚": 3395,
      "魯": 3396,
      "鮮": 3397,
      "鰹": 3398,
      "鱼": 3399,
      "鱿": 3400,
      "鲁": 3401,
      "鲜": 3402,
      "鳥": 3403,
      "鴨": 3404,
      "鶏": 3405,
      "鷹": 3406,
      "鸟": 3407,
      "鸡": 3408,
      "鸣": 3409,
      "鸦": 3410,
      "鸾": 3411,
      "鹂": 3412,
      "麒": 3413,
      "麗": 3414,
      "麟": 3415,
      "麩": 3416,
      "麴": 3417,
      "麵": 3418,
      "麻": 3419,
      "麼": 3420,
      "黃": 3421,
      "黄": 3422,
      "黑": 3423,
      "黒": 3424,
      "默": 3425,
      "點": 3426,
      "齐": 3427,
      "齿": 3428,
      "龙": 3429,
      "ꜣ": 3430,
      "꞉": 3431,
      "가": 3432,
      "각": 3433,
      "간": 3434,
      "갈": 3435,
      "감": 3436,
      "갑": 3437,
      "값": 3438,
      "갔": 3439,
      "강": 3440,
      "같": 3441,
      "개": 3442,
      "객": 3443,
      "거": 3444,
      "건": 3445,
      "검": 3446,
      "것": 3447,
      "게": 3448,
      "겨": 3449,
      "격": 3450,
      "견": 3451,
      "결": 3452,
      "겹": 3453,
      "경": 3454,
      "계": 3455,
      "고": 3456,
      "곡": 3457,
      "곱": 3458,
      "공": 3459,
      "과": 3460,
      "관": 3461,
      "광": 3462,
      "괜": 3463,
      "교": 3464,
      "구": 3465,
      "국": 3466,
      "군": 3467,
      "궁": 3468,
      "권": 3469,
      "그": 3470,
      "글": 3471,
      "금": 3472,
      "기": 3473,
      "김": 3474,
      "까": 3475,
      "께": 3476,
      "끝": 3477,
      "나": 3478,
      "난": 3479,
      "날": 3480,
      "남": 3481,
      "낭": 3482,
      "내": 3483,
      "낸": 3484,
      "네": 3485,
      "녀": 3486,
      "년": 3487,
      "녕": 3488,
      "노": 3489,
      "놀": 3490,
      "눈": 3491,
      "는": 3492,
      "늘": 3493,
      "능": 3494,
      "니": 3495,
      "닌": 3496,
      "님": 3497,
      "다": 3498,
      "닥": 3499,
      "단": 3500,
      "달": 3501,
      "닭": 3502,
      "담": 3503,
      "당": 3504,
      "대": 3505,
      "더": 3506,
      "던": 3507,
      "덟": 3508,
      "데": 3509,
      "도": 3510,
      "독": 3511,
      "돌": 3512,
      "동": 3513,
      "되": 3514,
      "된": 3515,
      "두": 3516,
      "둘": 3517,
      "둠": 3518,
      "드": 3519,
      "든": 3520,
      "들": 3521,
      "디": 3522,
      "따": 3523,
      "딱": 3524,
      "떡": 3525,
      "떻": 3526,
      "또": 3527,
      "라": 3528,
      "락": 3529,
      "란": 3530,
      "람": 3531,
      "랐": 3532,
      "랑": 3533,
      "래": 3534,
      "랙": 3535,
      "랜": 3536,
      "러": 3537,
      "럼": 3538,
      "렇": 3539,
      "레": 3540,
      "려": 3541,
      "력": 3542,
      "로": 3543,
      "록": 3544,
      "론": 3545,
      "료": 3546,
      "루": 3547,
      "류": 3548,
      "률": 3549,
      "르": 3550,
      "를": 3551,
      "리": 3552,
      "린": 3553,
      "릴": 3554,
      "림": 3555,
      "립": 3556,
      "링": 3557,
      "마": 3558,
      "만": 3559,
      "많": 3560,
      "말": 3561,
      "맙": 3562,
      "매": 3563,
      "맥": 3564,
      "머": 3565,
      "먹": 3566,
      "메": 3567,
      "면": 3568,
      "멸": 3569,
      "명": 3570,
      "모": 3571,
      "목": 3572,
      "못": 3573,
      "무": 3574,
      "묵": 3575,
      "문": 3576,
      "물": 3577,
      "미": 3578,
      "민": 3579,
      "바": 3580,
      "박": 3581,
      "반": 3582,
      "받": 3583,
      "발": 3584,
      "밥": 3585,
      "방": 3586,
      "배": 3587,
      "백": 3588,
      "버": 3589,
      "번": 3590,
      "범": 3591,
      "변": 3592,
      "별": 3593,
      "병": 3594,
      "보": 3595,
      "복": 3596,
      "볶": 3597,
      "본": 3598,
      "볼": 3599,
      "봉": 3600,
      "부": 3601,
      "북": 3602,
      "분": 3603,
      "불": 3604,
      "블": 3605,
      "비": 3606,
      "빔": 3607,
      "빨": 3608,
      "사": 3609,
      "산": 3610,
      "살": 3611,
      "삶": 3612,
      "삼": 3613,
      "상": 3614,
      "새": 3615,
      "색": 3616,
      "생": 3617,
      "서": 3618,
      "석": 3619,
      "선": 3620,
      "설": 3621,
      "섯": 3622,
      "성": 3623,
      "섶": 3624,
      "세": 3625,
      "셋": 3626,
      "소": 3627,
      "속": 3628,
      "손": 3629,
      "송": 3630,
      "솥": 3631,
      "수": 3632,
      "숙": 3633,
      "순": 3634,
      "술": 3635,
      "스": 3636,
      "습": 3637,
      "승": 3638,
      "시": 3639,
      "식": 3640,
      "신": 3641,
      "실": 3642,
      "심": 3643,
      "십": 3644,
      "쌈": 3645,
      "씨": 3646,
      "아": 3647,
      "안": 3648,
      "았": 3649,
      "애": 3650,
      "야": 3651,
      "양": 3652,
      "어": 3653,
      "언": 3654,
      "얼": 3655,
      "엄": 3656,
      "업": 3657,
      "엇": 3658,
      "었": 3659,
      "에": 3660,
      "여": 3661,
      "역": 3662,
      "연": 3663,
      "열": 3664,
      "영": 3665,
      "예": 3666,
      "옛": 3667,
      "오": 3668,
      "온": 3669,
      "올": 3670,
      "옹": 3671,
      "와": 3672,
      "완": 3673,
      "왕": 3674,
      "외": 3675,
      "요": 3676,
      "용": 3677,
      "우": 3678,
      "운": 3679,
      "울": 3680,
      "원": 3681,
      "웡": 3682,
      "위": 3683,
      "유": 3684,
      "육": 3685,
      "율": 3686,
      "으": 3687,
      "은": 3688,
      "을": 3689,
      "음": 3690,
      "의": 3691,
      "이": 3692,
      "인": 3693,
      "일": 3694,
      "읽": 3695,
      "임": 3696,
      "입": 3697,
      "있": 3698,
      "자": 3699,
      "작": 3700,
      "잘": 3701,
      "잡": 3702,
      "장": 3703,
      "재": 3704,
      "쟁": 3705,
      "저": 3706,
      "적": 3707,
      "전": 3708,
      "절": 3709,
      "접": 3710,
      "젓": 3711,
      "정": 3712,
      "제": 3713,
      "젝": 3714,
      "조": 3715,
      "족": 3716,
      "좋": 3717,
      "주": 3718,
      "줄": 3719,
      "중": 3720,
      "즙": 3721,
      "지": 3722,
      "진": 3723,
      "집": 3724,
      "짜": 3725,
      "쨌": 3726,
      "쫄": 3727,
      "쫓": 3728,
      "차": 3729,
      "찬": 3730,
      "찮": 3731,
      "참": 3732,
      "찾": 3733,
      "채": 3734,
      "책": 3735,
      "처": 3736,
      "청": 3737,
      "체": 3738,
      "초": 3739,
      "최": 3740,
      "추": 3741,
      "축": 3742,
      "춘": 3743,
      "출": 3744,
      "춤": 3745,
      "충": 3746,
      "치": 3747,
      "친": 3748,
      "침": 3749,
      "칼": 3750,
      "쿠": 3751,
      "크": 3752,
      "키": 3753,
      "킹": 3754,
      "타": 3755,
      "탁": 3756,
      "탈": 3757,
      "탑": 3758,
      "탕": 3759,
      "태": 3760,
      "택": 3761,
      "터": 3762,
      "텔": 3763,
      "토": 3764,
      "통": 3765,
      "튀": 3766,
      "트": 3767,
      "특": 3768,
      "튼": 3769,
      "티": 3770,
      "파": 3771,
      "판": 3772,
      "팥": 3773,
      "편": 3774,
      "풀": 3775,
      "품": 3776,
      "풍": 3777,
      "프": 3778,
      "피": 3779,
      "필": 3780,
      "하": 3781,
      "학": 3782,
      "한": 3783,
      "할": 3784,
      "함": 3785,
      "합": 3786,
      "해": 3787,
      "했": 3788,
      "행": 3789,
      "향": 3790,
      "험": 3791,
      "현": 3792,
      "혈": 3793,
      "형": 3794,
      "혜": 3795,
      "호": 3796,
      "홉": 3797,
      "화": 3798,
      "환": 3799,
      "회": 3800,
      "후": 3801,
      "훈": 3802,
      "휴": 3803,
      "흰": 3804,
      "히": 3805,
      "": 3806,
      "︎": 3807,
      "️": 3808,
      "�": 3809,
      "𐰃": 3810,
      "𐰇": 3811,
      "𐱅": 3812,
      "𓇋": 3813,
      "𓏏": 3814,
      "🃏": 3815,
      "🇦": 3816,
      "🇧": 3817,
      "🇨": 3818,
      "🇩": 3819,
      "🇪": 3820,
      "🇫": 3821,
      "🇬": 3822,
      "🇭": 3823,
      "🇮": 3824,
      "🇯": 3825,
      "🇰": 3826,
      "🇱": 3827,
      "🇲": 3828,
      "🇳": 3829,
      "🇴": 3830,
      "🇵": 3831,
      "🇷": 3832,
      "🇸": 3833,
      "🇹": 3834,
      "🇺": 3835,
      "🇽": 3836,
      "🇿": 3837,
      "🌀": 3838,
      "🌁": 3839,
      "🌃": 3840,
      "🌄": 3841,
      "🌅": 3842,
      "🌆": 3843,
      "🌇": 3844,
      "🌈": 3845,
      "🌉": 3846,
      "🌊": 3847,
      "🌋": 3848,
      "🌌": 3849,
      "🌍": 3850,
      "🌎": 3851,
      "🌏": 3852,
      "🌐": 3853,
      "🌕": 3854,
      "🌙": 3855,
      "🌞": 3856,
      "🌟": 3857,
      "🌠": 3858,
      "🌡": 3859,
      "🌤": 3860,
      "🌦": 3861,
      "🌧": 3862,
      "🌨": 3863,
      "🌩": 3864,
      "🌪": 3865,
      "🌫": 3866,
      "🌬": 3867,
      "🌭": 3868,
      "🌮": 3869,
      "🌰": 3870,
      "🌱": 3871,
      "🌲": 3872,
      "🌳": 3873,
      "🌴": 3874,
      "🌵": 3875,
      "🌶": 3876,
      "🌷": 3877,
      "🌸": 3878,
      "🌹": 3879,
      "🌺": 3880,
      "🌻": 3881,
      "🌼": 3882,
      "🌽": 3883,
      "🌾": 3884,
      "🌿": 3885,
      "🍀": 3886,
      "🍁": 3887,
      "🍂": 3888,
      "🍃": 3889,
      "🍄": 3890,
      "🍅": 3891,
      "🍆": 3892,
      "🍇": 3893,
      "🍉": 3894,
      "🍊": 3895,
      "🍋": 3896,
      "🍌": 3897,
      "🍍": 3898,
      "🍎": 3899,
      "🍏": 3900,
      "🍐": 3901,
      "🍑": 3902,
      "🍒": 3903,
      "🍓": 3904,
      "🍔": 3905,
      "🍕": 3906,
      "🍖": 3907,
      "🍗": 3908,
      "🍚": 3909,
      "🍛": 3910,
      "🍜": 3911,
      "🍝": 3912,
      "🍞": 3913,
      "🍟": 3914,
      "🍠": 3915,
      "🍣": 3916,
      "🍤": 3917,
      "🍦": 3918,
      "🍧": 3919,
      "🍨": 3920,
      "🍩": 3921,
      "🍪": 3922,
      "🍫": 3923,
      "🍬": 3924,
      "🍭": 3925,
      "🍮": 3926,
      "🍯": 3927,
      "🍰": 3928,
      "🍱": 3929,
      "🍲": 3930,
      "🍳": 3931,
      "🍴": 3932,
      "🍵": 3933,
      "🍶": 3934,
      "🍷": 3935,
      "🍸": 3936,
      "🍹": 3937,
      "🍻": 3938,
      "🍼": 3939,
      "🍽": 3940,
      "🍾": 3941,
      "🍿": 3942,
      "🎀": 3943,
      "🎁": 3944,
      "🎂": 3945,
      "🎃": 3946,
      "🎄": 3947,
      "🎅": 3948,
      "🎆": 3949,
      "🎇": 3950,
      "🎈": 3951,
      "🎉": 3952,
      "🎊": 3953,
      "🎒": 3954,
      "🎓": 3955,
      "🎙": 3956,
      "🎠": 3957,
      "🎢": 3958,
      "🎣": 3959,
      "🎤": 3960,
      "🎥": 3961,
      "🎧": 3962,
      "🎨": 3963,
      "🎩": 3964,
      "🎫": 3965,
      "🎬": 3966,
      "🎭": 3967,
      "🎮": 3968,
      "🎯": 3969,
      "🎰": 3970,
      "🎱": 3971,
      "🎲": 3972,
      "🎵": 3973,
      "🎶": 3974,
      "🎷": 3975,
      "🎸": 3976,
      "🎹": 3977,
      "🎺": 3978,
      "🎼": 3979,
      "🎾": 3980,
      "🎿": 3981,
      "🏀": 3982,
      "🏃": 3983,
      "🏄": 3984,
      "🏅": 3985,
      "🏆": 3986,
      "🏈": 3987,
      "🏊": 3988,
      "🏋": 3989,
      "🏌": 3990,
      "🏎": 3991,
      "🏔": 3992,
      "🏕": 3993,
      "🏖": 3994,
      "🏗": 3995,
      "🏘": 3996,
      "🏙": 3997,
      "🏚": 3998,
      "🏛": 3999,
      "🏜": 4000,
      "🏝": 4001,
      "🏞": 4002,
      "🏠": 4003,
      "🏡": 4004,
      "🏢": 4005,
      "🏤": 4006,
      "🏥": 4007,
      "🏦": 4008,
      "🏨": 4009,
      "🏪": 4010,
      "🏫": 4011,
      "🏭": 4012,
      "🏯": 4013,
      "🏰": 4014,
      "🏳": 4015,
      "🏷": 4016,
      "🏸": 4017,
      "🏹": 4018,
      "🏺": 4019,
      "🏻": 4020,
      "🏼": 4021,
      "🏽": 4022,
      "🏾": 4023,
      "🏿": 4024,
      "🐀": 4025,
      "🐁": 4026,
      "🐂": 4027,
      "🐄": 4028,
      "🐅": 4029,
      "🐆": 4030,
      "🐇": 4031,
      "🐉": 4032,
      "🐌": 4033,
      "🐍": 4034,
      "🐎": 4035,
      "🐐": 4036,
      "🐑": 4037,
      "🐒": 4038,
      "🐓": 4039,
      "🐔": 4040,
      "🐕": 4041,
      "🐗": 4042,
      "🐘": 4043,
      "🐚": 4044,
      "🐛": 4045,
      "🐜": 4046,
      "🐝": 4047,
      "🐞": 4048,
      "🐟": 4049,
      "🐠": 4050,
      "🐡": 4051,
      "🐢": 4052,
      "🐣": 4053,
      "🐤": 4054,
      "🐦": 4055,
      "🐧": 4056,
      "🐨": 4057,
      "🐬": 4058,
      "🐭": 4059,
      "🐮": 4060,
      "🐯": 4061,
      "🐰": 4062,
      "🐱": 4063,
      "🐲": 4064,
      "🐳": 4065,
      "🐴": 4066,
      "🐶": 4067,
      "🐷": 4068,
      "🐸": 4069,
      "🐹": 4070,
      "🐺": 4071,
      "🐻": 4072,
      "🐼": 4073,
      "🐽": 4074,
      "🐾": 4075,
      "🐿": 4076,
      "👀": 4077,
      "👂": 4078,
      "👇": 4079,
      "👉": 4080,
      "👋": 4081,
      "👌": 4082,
      "👍": 4083,
      "👎": 4084,
      "👏": 4085,
      "👑": 4086,
      "👓": 4087,
      "👕": 4088,
      "👗": 4089,
      "👙": 4090,
      "👟": 4091,
      "👠": 4092,
      "👣": 4093,
      "👥": 4094,
      "👦": 4095,
      "👧": 4096,
      "👨": 4097,
      "👩": 4098,
      "👪": 4099,
      "👫": 4100,
      "👬": 4101,
      "👭": 4102,
      "👮": 4103,
      "👰": 4104,
      "👴": 4105,
      "👵": 4106,
      "👶": 4107,
      "👷": 4108,
      "👸": 4109,
      "👻": 4110,
      "👽": 4111,
      "👾": 4112,
      "👿": 4113,
      "💀": 4114,
      "💁": 4115,
      "💂": 4116,
      "💃": 4117,
      "💄": 4118,
      "💅": 4119,
      "💆": 4120,
      "💇": 4121,
      "💉": 4122,
      "💊": 4123,
      "💋": 4124,
      "💌": 4125,
      "💍": 4126,
      "💎": 4127,
      "💏": 4128,
      "💐": 4129,
      "💓": 4130,
      "💔": 4131,
      "💕": 4132,
      "💖": 4133,
      "💗": 4134,
      "💘": 4135,
      "💙": 4136,
      "💚": 4137,
      "💛": 4138,
      "💜": 4139,
      "💝": 4140,
      "💞": 4141,
      "💡": 4142,
      "💣": 4143,
      "💤": 4144,
      "💥": 4145,
      "💦": 4146,
      "💧": 4147,
      "💨": 4148,
      "💩": 4149,
      "💪": 4150,
      "💫": 4151,
      "💬": 4152,
      "💭": 4153,
      "💯": 4154,
      "💰": 4155,
      "💱": 4156,
      "💳": 4157,
      "💶": 4158,
      "💸": 4159,
      "💻": 4160,
      "💼": 4161,
      "💾": 4162,
      "💿": 4163,
      "📁": 4164,
      "📂": 4165,
      "📄": 4166,
      "📅": 4167,
      "📈": 4168,
      "📉": 4169,
      "📊": 4170,
      "📋": 4171,
      "📌": 4172,
      "📍": 4173,
      "📏": 4174,
      "📐": 4175,
      "📑": 4176,
      "📔": 4177,
      "📕": 4178,
      "📖": 4179,
      "📘": 4180,
      "📚": 4181,
      "📜": 4182,
      "📝": 4183,
      "📞": 4184,
      "📡": 4185,
      "📣": 4186,
      "📦": 4187,
      "📧": 4188,
      "📫": 4189,
      "📬": 4190,
      "📰": 4191,
      "📱": 4192,
      "📲": 4193,
      "📶": 4194,
      "📷": 4195,
      "📸": 4196,
      "📹": 4197,
      "📺": 4198,
      "📻": 4199,
      "🔁": 4200,
      "🔄": 4201,
      "🔇": 4202,
      "🔈": 4203,
      "🔉": 4204,
      "🔊": 4205,
      "🔋": 4206,
      "🔌": 4207,
      "🔍": 4208,
      "🔎": 4209,
      "🔏": 4210,
      "🔐": 4211,
      "🔑": 4212,
      "🔒": 4213,
      "🔓": 4214,
      "🔖": 4215,
      "🔗": 4216,
      "🔜": 4217,
      "🔝": 4218,
      "🔠": 4219,
      "🔢": 4220,
      "🔥": 4221,
      "🔦": 4222,
      "🔧": 4223,
      "🔨": 4224,
      "🔩": 4225,
      "🔪": 4226,
      "🔫": 4227,
      "🔬": 4228,
      "🔭": 4229,
      "🔮": 4230,
      "🔱": 4231,
      "🔴": 4232,
      "🔵": 4233,
      "🔺": 4234,
      "🕉": 4235,
      "🕊": 4236,
      "🕋": 4237,
      "🕌": 4238,
      "🕍": 4239,
      "🕎": 4240,
      "🕒": 4241,
      "🕯": 4242,
      "🕰": 4243,
      "🕳": 4244,
      "🕵": 4245,
      "🕶": 4246,
      "🕷": 4247,
      "🕸": 4248,
      "🕹": 4249,
      "🕺": 4250,
      "🖊": 4251,
      "🖋": 4252,
      "🖌": 4253,
      "🖍": 4254,
      "🖐": 4255,
      "🖤": 4256,
      "🖥": 4257,
      "🖨": 4258,
      "🖱": 4259,
      "🖼": 4260,
      "🗂": 4261,
      "🗃": 4262,
      "🗄": 4263,
      "🗑": 4264,
      "🗓": 4265,
      "🗜": 4266,
      "🗝": 4267,
      "🗞": 4268,
      "🗡": 4269,
      "🗣": 4270,
      "🗳": 4271,
      "🗺": 4272,
      "🗻": 4273,
      "🗼": 4274,
      "🗽": 4275,
      "🗿": 4276,
      "😀": 4277,
      "😁": 4278,
      "😂": 4279,
      "😃": 4280,
      "😄": 4281,
      "😅": 4282,
      "😆": 4283,
      "😇": 4284,
      "😈": 4285,
      "😉": 4286,
      "😊": 4287,
      "😋": 4288,
      "😌": 4289,
      "😍": 4290,
      "😎": 4291,
      "😏": 4292,
      "😓": 4293,
      "😔": 4294,
      "😕": 4295,
      "😖": 4296,
      "😘": 4297,
      "😛": 4298,
      "😜": 4299,
      "😞": 4300,
      "😡": 4301,
      "😢": 4302,
      "😤": 4303,
      "😨": 4304,
      "😩": 4305,
      "😬": 4306,
      "😮": 4307,
      "😰": 4308,
      "😱": 4309,
      "😲": 4310,
      "😳": 4311,
      "😴": 4312,
      "😷": 4313,
      "😸": 4314,
      "😺": 4315,
      "😻": 4316,
      "😿": 4317,
      "🙁": 4318,
      "🙂": 4319,
      "🙄": 4320,
      "🙅": 4321,
      "🙋": 4322,
      "🙌": 4323,
      "🙏": 4324,
      "🚀": 4325,
      "🚁": 4326,
      "🚂": 4327,
      "🚆": 4328,
      "🚇": 4329,
      "🚉": 4330,
      "🚊": 4331,
      "🚌": 4332,
      "🚎": 4333,
      "🚒": 4334,
      "🚓": 4335,
      "🚕": 4336,
      "🚗": 4337,
      "🚚": 4338,
      "🚛": 4339,
      "🚜": 4340,
      "🚢": 4341,
      "🚣": 4342,
      "🚦": 4343,
      "🚧": 4344,
      "🚨": 4345,
      "🚩": 4346,
      "🚪": 4347,
      "🚫": 4348,
      "🚭": 4349,
      "🚯": 4350,
      "🚰": 4351,
      "🚲": 4352,
      "🚴": 4353,
      "🚶": 4354,
      "🚿": 4355,
      "🛁": 4356,
      "🛋": 4357,
      "🛌": 4358,
      "🛍": 4359,
      "🛏": 4360,
      "🛑": 4361,
      "🛒": 4362,
      "🛖": 4363,
      "🛗": 4364,
      "🛠": 4365,
      "🛡": 4366,
      "🛢": 4367,
      "🛣": 4368,
      "🛤": 4369,
      "🛥": 4370,
      "🛫": 4371,
      "🛬": 4372,
      "🛰": 4373,
      "🛳": 4374,
      "🛵": 4375,
      "🛶": 4376,
      "🛷": 4377,
      "🛸": 4378,
      "🛹": 4379,
      "🟠": 4380,
      "🟢": 4381,
      "🟦": 4382,
      "🤑": 4383,
      "🤒": 4384,
      "🤓": 4385,
      "🤔": 4386,
      "🤕": 4387,
      "🤖": 4388,
      "🤗": 4389,
      "🤘": 4390,
      "🤙": 4391,
      "🤛": 4392,
      "🤜": 4393,
      "🤝": 4394,
      "🤞": 4395,
      "🤠": 4396,
      "🤡": 4397,
      "🤢": 4398,
      "🤣": 4399,
      "🤤": 4400,
      "🤦": 4401,
      "🤧": 4402,
      "🤨": 4403,
      "🤩": 4404,
      "🤪": 4405,
      "🤫": 4406,
      "🤯": 4407,
      "🤰": 4408,
      "🤲": 4409,
      "🤳": 4410,
      "🤴": 4411,
      "🤵": 4412,
      "🤷": 4413,
      "🤸": 4414,
      "🤹": 4415,
      "🤺": 4416,
      "🤼": 4417,
      "🤾": 4418,
      "🤿": 4419,
      "🥁": 4420,
      "🥂": 4421,
      "🥄": 4422,
      "🥅": 4423,
      "🥇": 4424,
      "🥋": 4425,
      "🥐": 4426,
      "🥑": 4427,
      "🥓": 4428,
      "🥔": 4429,
      "🥕": 4430,
      "🥖": 4431,
      "🥗": 4432,
      "🥘": 4433,
      "🥙": 4434,
      "🥚": 4435,
      "🥛": 4436,
      "🥜": 4437,
      "🥝": 4438,
      "🥞": 4439,
      "🥠": 4440,
      "🥢": 4441,
      "🥣": 4442,
      "🥤": 4443,
      "🥥": 4444,
      "🥦": 4445,
      "🥧": 4446,
      "🥨": 4447,
      "🥩": 4448,
      "🥪": 4449,
      "🥬": 4450,
      "🥰": 4451,
      "🥳": 4452,
      "🥶": 4453,
      "🥺": 4454,
      "🥾": 4455,
      "🦀": 4456,
      "🦁": 4457,
      "🦃": 4458,
      "🦄": 4459,
      "🦅": 4460,
      "🦇": 4461,
      "🦈": 4462,
      "🦊": 4463,
      "🦋": 4464,
      "🦌": 4465,
      "🦒": 4466,
      "🦔": 4467,
      "🦕": 4468,
      "🦖": 4469,
      "🦚": 4470,
      "🦜": 4471,
      "🦠": 4472,
      "🦩": 4473,
      "🦪": 4474,
      "🦭": 4475,
      "🦯": 4476,
      "🦳": 4477,
      "🦴": 4478,
      "🦶": 4479,
      "🦷": 4480,
      "🦸": 4481,
      "🦹": 4482,
      "🦾": 4483,
      "🧀": 4484,
      "🧁": 4485,
      "🧂": 4486,
      "🧅": 4487,
      "🧈": 4488,
      "🧊": 4489,
      "🧍": 4490,
      "🧐": 4491,
      "🧑": 4492,
      "🧒": 4493,
      "🧓": 4494,
      "🧔": 4495,
      "🧖": 4496,
      "🧗": 4497,
      "🧘": 4498,
      "🧙": 4499,
      "🧚": 4500,
      "🧛": 4501,
      "🧝": 4502,
      "🧞": 4503,
      "🧟": 4504,
      "🧠": 4505,
      "🧢": 4506,
      "🧤": 4507,
      "🧥": 4508,
      "🧧": 4509,
      "🧨": 4510,
      "🧩": 4511,
      "🧪": 4512,
      "🧫": 4513,
      "🧬": 4514,
      "🧭": 4515,
      "🧮": 4516,
      "🧰": 4517,
      "🧱": 4518,
      "🧲": 4519,
      "🧳": 4520,
      "🧵": 4521,
      "🧶": 4522,
      "🧸": 4523,
      "🧹": 4524,
      "🧺": 4525,
      "🧼": 4526,
      "🩰": 4527,
      "🩸": 4528,
      "🩹": 4529,
      "🩺": 4530,
      "🪂": 4531,
      "🪄": 4532,
      "🪅": 4533,
      "🪐": 4534,
      "🪙": 4535,
      "🪜": 4536,
      "🪡": 4537,
      "🪨": 4538,
      "🪴": 4539,
      "🫐": 4540,
      "🫑": 4541,
      "🫒": 4542,
      "🫓": 4543,
      "🫕": 4544,
      "🫖": 4545,
      "in": 4546,
      "th": 4547,
      "er": 4548,
      "an": 4549,
      "es": 4550,
      "on": 4551,
      "ti": 4552,
      "en": 4553,
      "ing": 4554,
      "or": 4555,
      "al": 4556,
      "re": 4557,
      "ou": 4558,
      "and": 4559,
      "at": 4560,
      "the": 4561,
      "ar": 4562,
      "st": 4563,
      "ed": 4564,
      "to": 4565,
      "tion": 4566,
      "le": 4567,
      "it": 4568,
      "is": 4569,
      "of": 4570,
      "ic": 4571,
      "om": 4572,
      "ac": 4573,
      "ent": 4574,
      "as": 4575,
      "el": 4576,
      "ec": 4577,
      "ro": 4578,
      "ation": 4579,
      "il": 4580,
      "--": 4581,
      "ol": 4582,
      "ow": 4583,
      "for": 4584,
      "si": 4585,
      "ch": 4586,
      "ur": 4587,
      "ve": 4588,
      "ly": 4589,
      "et": 4590,
      "ers": 4591,
      "ad": 4592,
      "un": 4593,
      "ex": 4594,
      "ce": 4595,
      "our": 4596,
      "con": 4597,
      "ab": 4598,
      "li": 4599,
      "am": 4600,
      "em": 4601,
      "ul": 4602,
      "gh": 4603,
      "us": 4604,
      "wh": 4605,
      "di": 4606,
      "ap": 4607,
      "ir": 4608,
      "ag": 4609,
      "id": 4610,
      "ver": 4611,
      "ess": 4612,
      "pl": 4613,
      "tr": 4614,
      "com": 4615,
      "ter": 4616,
      "ith": 4617,
      "ay": 4618,
      "ts": 4619,
      "im": 4620,
      "Th": 4621,
      "pr": 4622,
      "pro": 4623,
      "se": 4624,
      "su": 4625,
      "with": 4626,
      "op": 4627,
      "ate": 4628,
      "----": 4629,
      "ity": 4630,
      "tic": 4631,
      "be": 4632,
      "qu": 4633,
      "ther": 4634,
      "all": 4635,
      "ain": 4636,
      "de": 4637,
      "ment": 4638,
      "out": 4639,
      "sh": 4640,
      "der": 4641,
      "we": 4642,
      "are": 4643,
      "ke": 4644,
      "ci": 4645,
      "ri": 4646,
      "oun": 4647,
      "that": 4648,
      "ut": 4649,
      "you": 4650,
      "ne": 4651,
      "sp": 4652,
      "per": 4653,
      "lo": 4654,
      "me": 4655,
      "ese": 4656,
      "od": 4657,
      "wor": 4658,
      "str": 4659,
      "gr": 4660,
      "your": 4661,
      "ies": 4662,
      "ot": 4663,
      "ough": 4664,
      "ome": 4665,
      "so": 4666,
      "tions": 4667,
      "res": 4668,
      "uc": 4669,
      "ure": 4670,
      "ous": 4671,
      "ations": 4672,
      "their": 4673,
      "ting": 4674,
      "ine": 4675,
      "ld": 4676,
      "he": 4677,
      "ill": 4678,
      "ff": 4679,
      "um": 4680,
      "fr": 4681,
      "por": 4682,
      "In": 4683,
      "ge": 4684,
      "can": 4685,
      "if": 4686,
      "ore": 4687,
      "iz": 4688,
      "ance": 4689,
      "ds": 4690,
      "comp": 4691,
      "ant": 4692,
      "av": 4693,
      "ical": 4694,
      "cl": 4695,
      "cre": 4696,
      "co": 4697,
      "tive": 4698,
      "king": 4699,
      "hi": 4700,
      "ig": 4701,
      "sion": 4702,
      "ding": 4703,
      "**": 4704,
      "ght": 4705,
      "enti": 4706,
      "po": 4707,
      "ating": 4708,
      "ves": 4709,
      "one": 4710,
      "ties": 4711,
      "by": 4712,
      "fe": 4713,
      "ces": 4714,
      "ev": 4715,
      "dis": 4716,
      "ere": 4717,
      "ever": 4718,
      "ual": 4719,
      "form": 4720,
      "this": 4721,
      "mo": 4722,
      "par": 4723,
      "they": 4724,
      "ach": 4725,
      "able": 4726,
      "about": 4727,
      "ong": 4728,
      "ma": 4729,
      "--------": 4730,
      "ence": 4731,
      "like": 4732,
      "pe": 4733,
      "these": 4734,
      "ust": 4735,
      "ect": 4736,
      "rough": 4737,
      "ents": 4738,
      "its": 4739,
      "into": 4740,
      "age": 4741,
      "pre": 4742,
      "ound": 4743,
      "some": 4744,
      "te": 4745,
      "up": 4746,
      "cont": 4747,
      "ful": 4748,
      "from": 4749,
      "stor": 4750,
      "act": 4751,
      "The": 4752,
      "stand": 4753,
      "ans": 4754,
      "og": 4755,
      "ary": 4756,
      "vid": 4757,
      "vel": 4758,
      "ks": 4759,
      "eng": 4760,
      "ave": 4761,
      "ps": 4762,
      "ors": 4763,
      "ell": 4764,
      "est": 4765,
      "under": 4766,
      "how": 4767,
      "tur": 4768,
      "ind": 4769,
      "ities": 4770,
      "oc": 4771,
      "bo": 4772,
      "ten": 4773,
      "comm": 4774,
      "ast": 4775,
      "now": 4776,
      "arn": 4777,
      "ple": 4778,
      "them": 4779,
      "ould": 4780,
      "ated": 4781,
      "br": 4782,
      "man": 4783,
      "inter": 4784,
      "over": 4785,
      "port": 4786,
      "ally": 4787,
      "clu": 4788,
      "ue": 4789,
      "expl": 4790,
      "no": 4791,
      "ile": 4792,
      "bet": 4793,
      "pres": 4794,
      "ments": 4795,
      "ech": 4796,
      "through": 4797,
      "ra": 4798,
      "ph": 4799,
      "way": 4800,
      "ious": 4801,
      "lec": 4802,
      "uring": 4803,
      "end": 4804,
      "thing": 4805,
      "ang": 4806,
      "ud": 4807,
      "ial": 4808,
      "gn": 4809,
      "war": 4810,
      "ving": 4811,
      "but": 4812,
      "ty": 4813,
      "gen": 4814,
      "hel": 4815,
      "cess": 4816,
      "duc": 4817,
      "ack": 4818,
      "ser": 4819,
      "tim": 4820,
      "cul": 4821,
      "ight": 4822,
      "olog": 4823,
      "learn": 4824,
      "other": 4825,
      "more": 4826,
      "sel": 4827,
      "col": 4828,
      "her": 4829,
      "ep": 4830,
      "ace": 4831,
      "soci": 4832,
      "ion": 4833,
      "ist": 4834,
      "will": 4835,
      "fl": 4836,
      "tiv": 4837,
      "This": 4838,
      "des": 4839,
      "do": 4840,
      "such": 4841,
      "use": 4842,
      "ip": 4843,
      "art": 4844,
      "when": 4845,
      "val": 4846,
      "vers": 4847,
      "ass": 4848,
      "Ch": 4849,
      "ble": 4850,
      "ich": 4851,
      "ater": 4852,
      "ens": 4853,
      "know": 4854,
      "sy": 4855,
      "time": 4856,
      "ob": 4857,
      "ta": 4858,
      "understand": 4859,
      "while": 4860,
      "ef": 4861,
      "bec": 4862,
      "les": 4863,
      "spec": 4864,
      "enc": 4865,
      "have": 4866,
      "Con": 4867,
      "diff": 4868,
      "own": 4869,
      "ific": 4870,
      "echn": 4871,
      "what": 4872,
      "By": 4873,
      "exper": 4874,
      "ential": 4875,
      "au": 4876,
      "ish": 4877,
      "cor": 4878,
      "ber": 4879,
      "iqu": 4880,
      "work": 4881,
      "every": 4882,
      "Wh": 4883,
      "exam": 4884,
      "As": 4885,
      "who": 4886,
      "go": 4887,
      "commun": 4888,
      "tional": 4889,
      "vi": 4890,
      "ility": 4891,
      "ates": 4892,
      "ative": 4893,
      "ences": 4894,
      "ign": 4895,
      "where": 4896,
      "var": 4897,
      "ween": 4898,
      "sc": 4899,
      "rem": 4900,
      "Un": 4901,
      "ved": 4902,
      "techn": 4903,
      "let": 4904,
      "pers": 4905,
      "differ": 4906,
      "play": 4907,
      "tain": 4908,
      "ite": 4909,
      "fun": 4910,
      "new": 4911,
      "using": 4912,
      "reg": 4913,
      "ok": 4914,
      "between": 4915,
      "ures": 4916,
      "dr": 4917,
      "world": 4918,
      "int": 4919,
      "ame": 4920,
      "any": 4921,
      "row": 4922,
      "bu": 4923,
      "off": 4924,
      "app": 4925,
      "sign": 4926,
      "day": 4927,
      "ose": 4928,
      "ati": 4929,
      "ll": 4930,
      "ss": 4931,
      "within": 4932,
      "ople": 4933,
      "fo": 4934,
      "ection": 4935,
      "ide": 4936,
      "als": 4937,
      "help": 4938,
      "ard": 4939,
      "arch": 4940,
      "ven": 4941,
      "inclu": 4942,
      "alth": 4943,
      "ely": 4944,
      "ice": 4945,
      "there": 4946,
      "rel": 4947,
      "min": 4948,
      "resp": 4949,
      "ular": 4950,
      "##": 4951,
      "tical": 4952,
      "was": 4953,
      "vol": 4954,
      "bl": 4955,
      "ower": 4956,
      "ire": 4957,
      "tri": 4958,
      "ily": 4959,
      "ism": 4960,
      "get": 4961,
      "ys": 4962,
      "An": 4963,
      "cer": 4964,
      "dec": 4965,
      "os": 4966,
      "cur": 4967,
      "cr": 4968,
      "indi": 4969,
      "people": 4970,
      "fin": 4971,
      "which": 4972,
      "experi": 4973,
      "read": 4974,
      "ture": 4975,
      "ear": 4976,
      "ings": 4977,
      "sur": 4978,
      "----------------": 4979,
      "care": 4980,
      "my": 4981,
      "prac": 4982,
      "For": 4983,
      "stem": 4984,
      "during": 4985,
      "histor": 4986,
      "sim": 4987,
      "even": 4988,
      "self": 4989,
      "might": 4990,
      "med": 4991,
      "need": 4992,
      "adv": 4993,
      "pec": 4994,
      "``": 4995,
      "inst": 4996,
      "bas": 4997,
      "fore": 4998,
      "Im": 4999,
      "chall": 5000,
      "provid": 5001,
      "gu": 5002,
      "lex": 5003,
      "tw": 5004,
      "How": 5005,
      "call": 5006,
      "vis": 5007,
      "af": 5008,
      "adi": 5009,
      "ics": 5010,
      "stud": 5011,
      "pol": 5012,
      "consi": 5013,
      "may": 5014,
      "low": 5015,
      "his": 5016,
      "coun": 5017,
      "conn": 5018,
      "loc": 5019,
      "ster": 5020,
      "not": 5021,
      "ext": 5022,
      "ath": 5023,
      "cep": 5024,
      "ew": 5025,
      "less": 5026,
      "vidual": 5027,
      "These": 5028,
      "agine": 5029,
      "struc": 5030,
      "ark": 5031,
      "ature": 5032,
      "could": 5033,
      "health": 5034,
      "different": 5035,
      "ms": 5036,
      "Ex": 5037,
      "oth": 5038,
      "individual": 5039,
      "hum": 5040,
      "eff": 5041,
      "has": 5042,
      "ness": 5043,
      "various": 5044,
      "sk": 5045,
      "sol": 5046,
      "fac": 5047,
      "mer": 5048,
      "life": 5049,
      "cho": 5050,
      "cover": 5051,
      "set": 5052,
      "tern": 5053,
      "It": 5054,
      "To": 5055,
      "each": 5056,
      "system": 5057,
      "cent": 5058,
      "fri": 5059,
      "ages": 5060,
      "import": 5061,
      "ons": 5062,
      "So": 5063,
      "power": 5064,
      "velop": 5065,
      "vir": 5066,
      "just": 5067,
      "oy": 5068,
      ").": 5069,
      "prom": 5070,
      "develop": 5071,
      "oring": 5072,
      "gan": 5073,
      "also": 5074,
      "fam": 5075,
      "ia": 5076,
      "valu": 5077,
      "lead": 5078,
      "allow": 5079,
      "ghts": 5080,
      "back": 5081,
      "gether": 5082,
      "ways": 5083,
      "ak": 5084,
      "ref": 5085,
      "cri": 5086,
      "ail": 5087,
      "those": 5088,
      "real": 5089,
      "ational": 5090,
      "around": 5091,
      "del": 5092,
      "ability": 5093,
      "requ": 5094,
      "led": 5095,
      "fi": 5096,
      "ology": 5097,
      "apter": 5098,
      "dat": 5099,
      "ase": 5100,
      "anc": 5101,
      "than": 5102,
      "ange": 5103,
      "ise": 5104,
      "invol": 5105,
      "reat": 5106,
      "ink": 5107,
      "signific": 5108,
      "St": 5109,
      "both": 5110,
      "ement": 5111,
      "air": 5112,
      "ade": 5113,
      "challeng": 5114,
      "present": 5115,
      "fol": 5116,
      "ted": 5117,
      "come": 5118,
      "aw": 5119,
      "ices": 5120,
      "ning": 5121,
      "pos": 5122,
      "ique": 5123,
      "char": 5124,
      "process": 5125,
      "understanding": 5126,
      "irst": 5127,
      "ines": 5128,
      "called": 5129,
      "We": 5130,
      "ember": 5131,
      "ross": 5132,
      "ory": 5133,
      "ized": 5134,
      "high": 5135,
      "sup": 5136,
      "ying": 5137,
      "cap": 5138,
      "used": 5139,
      "aging": 5140,
      "pot": 5141,
      "sm": 5142,
      "ication": 5143,
      "Ad": 5144,
      "Now": 5145,
      "ree": 5146,
      "trans": 5147,
      "see": 5148,
      "many": 5149,
      "person": 5150,
      "),": 5151,
      "would": 5152,
      "func": 5153,
      "ond": 5154,
      "Al": 5155,
      "land": 5156,
      "feel": 5157,
      "ances": 5158,
      "ends": 5159,
      "bel": 5160,
      "buil": 5161,
      "though": 5162,
      "cultur": 5163,
      "sure": 5164,
      "sti": 5165,
      "grow": 5166,
      "aph": 5167,
      "En": 5168,
      "cial": 5169,
      "complex": 5170,
      "mon": 5171,
      "create": 5172,
      "incre": 5173,
      "times": 5174,
      "then": 5175,
      "appro": 5176,
      "learning": 5177,
      "They": 5178,
      "ples": 5179,
      "design": 5180,
      "ize": 5181,
      "together": 5182,
      "ateg": 5183,
      "explore": 5184,
      "partic": 5185,
      "sions": 5186,
      "gi": 5187,
      "equ": 5188,
      "contin": 5189,
      "ety": 5190,
      "main": 5191,
      "hav": 5192,
      "esearch": 5193,
      "inform": 5194,
      "bal": 5195,
      "One": 5196,
      "erg": 5197,
      "old": 5198,
      "tal": 5199,
      "example": 5200,
      "viron": 5201,
      "plan": 5202,
      "cour": 5203,
      "sci": 5204,
      "something": 5205,
      "sub": 5206,
      "num": 5207,
      "rit": 5208,
      "det": 5209,
      "Let": 5210,
      "shap": 5211,
      "ects": 5212,
      "being": 5213,
      "data": 5214,
      "side": 5215,
      "exp": 5216,
      "sts": 5217,
      "identi": 5218,
      "tradi": 5219,
      "consider": 5220,
      "making": 5221,
      "tics": 5222,
      "ry": 5223,
      "towar": 5224,
      "bi": 5225,
      "sive": 5226,
      "line": 5227,
      "two": 5228,
      "ead": 5229,
      "she": 5230,
      "vely": 5231,
      "ently": 5232,
      "often": 5233,
      "share": 5234,
      "Com": 5235,
      "ital": 5236,
      "unique": 5237,
      "tice": 5238,
      "bre": 5239,
      "gg": 5240,
      "lit": 5241,
      "were": 5242,
      "before": 5243,
      "sec": 5244,
      "lab": 5245,
      "ols": 5246,
      "ods": 5247,
      "sing": 5248,
      "Imagine": 5249,
      "environ": 5250,
      "car": 5251,
      "But": 5252,
      "ause": 5253,
      "cus": 5254,
      "nam": 5255,
      "ick": 5256,
      "Through": 5257,
      "prof": 5258,
      "graph": 5259,
      "ically": 5260,
      "based": 5261,
      "others": 5262,
      "down": 5263,
      "ling": 5264,
      "mat": 5265,
      "essential": 5266,
      "izing": 5267,
      "significant": 5268,
      "tives": 5269,
      "divers": 5270,
      "cle": 5271,
      "among": 5272,
      "hand": 5273,
      "dist": 5274,
      "contri": 5275,
      "gener": 5276,
      "produc": 5277,
      "plic": 5278,
      "dem": 5279,
      "imp": 5280,
      "ources": 5281,
      "20": 5282,
      "fic": 5283,
      "mental": 5284,
      "tivity": 5285,
      "due": 5286,
      "ult": 5287,
      "anal": 5288,
      "organ": 5289,
      "However": 5290,
      "ris": 5291,
      "iti": 5292,
      "ization": 5293,
      "You": 5294,
      "clo": 5295,
      "foc": 5296,
      "skill": 5297,
      "ey": 5298,
      "follow": 5299,
      "better": 5300,
      "right": 5301,
      "lim": 5302,
      "clusion": 5303,
      "well": 5304,
      "found": 5305,
      "ques": 5306,
      "pi": 5307,
      "Re": 5308,
      "social": 5309,
      "respon": 5310,
      "had": 5311,
      "ded": 5312,
      "human": 5313,
      "mean": 5314,
      "turn": 5315,
      "fact": 5316,
      "aff": 5317,
      "ilar": 5318,
      "research": 5319,
      "ct": 5320,
      "Section": 5321,
      "challenges": 5322,
      "ili": 5323,
      "grou": 5324,
      "towards": 5325,
      "across": 5326,
      "When": 5327,
      "ected": 5328,
      "ately": 5329,
      "potential": 5330,
      "flu": 5331,
      "urther": 5332,
      "practic": 5333,
      "concep": 5334,
      "iness": 5335,
      "arti": 5336,
      "pop": 5337,
      "preci": 5338,
      "Ste": 5339,
      "light": 5340,
      "happ": 5341,
      "progr": 5342,
      "issu": 5343,
      "impro": 5344,
      "reli": 5345,
      "That": 5346,
      "ship": 5347,
      "ually": 5348,
      "ering": 5349,
      "ici": 5350,
      "har": 5351,
      "angu": 5352,
      "ips": 5353,
      "posi": 5354,
      "gin": 5355,
      ".\"": 5356,
      "individuals": 5357,
      "first": 5358,
      "experiences": 5359,
      "ality": 5360,
      "emb": 5361,
      "iques": 5362,
      "press": 5363,
      "ions": 5364,
      "ele": 5365,
      "standing": 5366,
      "relation": 5367,
      "water": 5368,
      "kes": 5369,
      "role": 5370,
      "serv": 5371,
      "discus": 5372,
      "Under": 5373,
      "discover": 5374,
      "mod": 5375,
      "mus": 5376,
      "mul": 5377,
      "ution": 5378,
      "pes": 5379,
      "strateg": 5380,
      "contribut": 5381,
      "emo": 5382,
      "long": 5383,
      "put": 5384,
      "ural": 5385,
      "dep": 5386,
      "prot": 5387,
      "start": 5388,
      "jour": 5389,
      "Tr": 5390,
      "meth": 5391,
      "With": 5392,
      "agement": 5393,
      "roduc": 5394,
      "II": 5395,
      "educ": 5396,
      "uch": 5397,
      "ets": 5398,
      "works": 5399,
      "Ac": 5400,
      "```": 5401,
      "red": 5402,
      "cin": 5403,
      "exploring": 5404,
      "history": 5405,
      "ze": 5406,
      "change": 5407,
      "Be": 5408,
      "empor": 5409,
      "On": 5410,
      "part": 5411,
      "ining": 5412,
      "does": 5413,
      "upon": 5414,
      "stories": 5415,
      "perform": 5416,
      "pu": 5417,
      "els": 5418,
      "mar": 5419,
      "sible": 5420,
      "suc": 5421,
      "dress": 5422,
      "function": 5423,
      "again": 5424,
      "19": 5425,
      "Step": 5426,
      "ones": 5427,
      "along": 5428,
      "fas": 5429,
      "dern": 5430,
      "systems": 5431,
      "show": 5432,
      "ood": 5433,
      "comes": 5434,
      "another": 5435,
      "fully": 5436,
      "cultural": 5437,
      "why": 5438,
      "fer": 5439,
      "things": 5440,
      "try": 5441,
      "including": 5442,
      "gre": 5443,
      "emp": 5444,
      "too": 5445,
      ":**": 5446,
      "sever": 5447,
      "after": 5448,
      "ilities": 5449,
      "ited": 5450,
      "story": 5451,
      "Fr": 5452,
      "spir": 5453,
      "uture": 5454,
      "portun": 5455,
      "langu": 5456,
      "class": 5457,
      "promot": 5458,
      "aim": 5459,
      "ord": 5460,
      "important": 5461,
      "take": 5462,
      "iting": 5463,
      "become": 5464,
      "men": 5465,
      "acy": 5466,
      "chang": 5467,
      "tle": 5468,
      "want": 5469,
      "ession": 5470,
      "beli": 5471,
      "view": 5472,
      "pri": 5473,
      "insi": 5474,
      "specific": 5475,
      "pat": 5476,
      "maintain": 5477,
      "appreci": 5478,
      "yth": 5479,
      "ney": 5480,
      "Chapter": 5481,
      "ains": 5482,
      "everyone": 5483,
      "ort": 5484,
      "Some": 5485,
      "aterial": 5486,
      "Ar": 5487,
      "sit": 5488,
      "emporary": 5489,
      "leg": 5490,
      "labor": 5491,
      "only": 5492,
      "throughout": 5493,
      "And": 5494,
      "techniques": 5495,
      "represent": 5496,
      "information": 5497,
      "lect": 5498,
      "move": 5499,
      "aring": 5500,
      "known": 5501,
      "multi": 5502,
      "cru": 5503,
      "students": 5504,
      "foster": 5505,
      "someone": 5506,
      "opportun": 5507,
      "most": 5508,
      "special": 5509,
      "Pro": 5510,
      "meric": 5511,
      "because": 5512,
      "ben": 5513,
      "ants": 5514,
      "cogn": 5515,
      "Understanding": 5516,
      "dition": 5517,
      ",\"": 5518,
      "ody": 5519,
      "sum": 5520,
      "eas": 5521,
      "bus": 5522,
      "make": 5523,
      "made": 5524,
      "raw": 5525,
      "ency": 5526,
      "nec": 5527,
      "ological": 5528,
      "skills": 5529,
      "onom": 5530,
      "###": 5531,
      "lish": 5532,
      "increas": 5533,
      "zing": 5534,
      "Americ": 5535,
      "He": 5536,
      "small": 5537,
      "personal": 5538,
      "mis": 5539,
      "communities": 5540,
      "approach": 5541,
      "**:": 5542,
      "ships": 5543,
      "What": 5544,
      "den": 5545,
      "acter": 5546,
      "valuable": 5547,
      "sa": 5548,
      "fascin": 5549,
      "contro": 5550,
      "joy": 5551,
      "issues": 5552,
      "year": 5553,
      "selves": 5554,
      "connec": 5555,
      "ner": 5556,
      "oper": 5557,
      "been": 5558,
      "aining": 5559,
      "influ": 5560,
      "success": 5561,
      "ired": 5562,
      "tively": 5563,
      "did": 5564,
      "actions": 5565,
      "ective": 5566,
      "friend": 5567,
      "writ": 5568,
      "forms": 5569,
      "scho": 5570,
      "friends": 5571,
      "ams": 5572,
      "tra": 5573,
      "top": 5574,
      "atures": 5575,
      "nov": 5576,
      "dies": 5577,
      "keep": 5578,
      "ins": 5579,
      "enh": 5580,
      "future": 5581,
      "material": 5582,
      "ather": 5583,
      "look": 5584,
      "find": 5585,
      "plications": 5586,
      "open": 5587,
      "practices": 5588,
      "action": 5589,
      "think": 5590,
      "deep": 5591,
      "ination": 5592,
      "tric": 5593,
      "certain": 5594,
      "diverse": 5595,
      "ars": 5596,
      "unit": 5597,
      "teach": 5598,
      "key": 5599,
      "Pr": 5600,
      "ake": 5601,
      "fort": 5602,
      "resources": 5603,
      "Int": 5604,
      "corpor": 5605,
      "cal": 5606,
      "without": 5607,
      "crucial": 5608,
      "ste": 5609,
      "mi": 5610,
      "tegr": 5611,
      "continu": 5612,
      "several": 5613,
      "vent": 5614,
      "bility": 5615,
      "ger": 5616,
      "historical": 5617,
      "tures": 5618,
      "remember": 5619,
      "pur": 5620,
      "modern": 5621,
      "sequ": 5622,
      "much": 5623,
      "dom": 5624,
      "journey": 5625,
      "liter": 5626,
      "fascinating": 5627,
      "met": 5628,
      "food": 5629,
      "ask": 5630,
      "mark": 5631,
      "instance": 5632,
      "won": 5633,
      "creating": 5634,
      "ustr": 5635,
      "ict": 5636,
      "helps": 5637,
      "family": 5638,
      "decis": 5639,
      "avig": 5640,
      "prin": 5641,
      "ories": 5642,
      "empl": 5643,
      "activ": 5644,
      "omen": 5645,
      "ists": 5646,
      "community": 5647,
      "hy": 5648,
      "exc": 5649,
      "innov": 5650,
      "level": 5651,
      "ests": 5652,
      "today": 5653,
      "eth": 5654,
      "ledge": 5655,
      "address": 5656,
      "against": 5657,
      "ython": 5658,
      "til": 5659,
      "Have": 5660,
      "business": 5661,
      "ensure": 5662,
      "net": 5663,
      "place": 5664,
      "lar": 5665,
      "dy": 5666,
      "strong": 5667,
      "inves": 5668,
      "atten": 5669,
      "support": 5670,
      "hile": 5671,
      "traditional": 5672,
      "anim": 5673,
      "local": 5674,
      "focus": 5675,
      "allows": 5676,
      "pattern": 5677,
      "jects": 5678,
      "At": 5679,
      "means": 5680,
      "ric": 5681,
      "ground": 5682,
      "face": 5683,
      "critical": 5684,
      "particular": 5685,
      "necess": 5686,
      "tu": 5687,
      "lying": 5688,
      "glo": 5689,
      "concer": 5690,
      "don": 5691,
      "ns": 5692,
      "experience": 5693,
      "ian": 5694,
      "provide": 5695,
      "havi": 5696,
      "bro": 5697,
      "sen": 5698,
      "00": 5699,
      "tools": 5700,
      "chapter": 5701,
      "While": 5702,
      "hol": 5703,
      "chil": 5704,
      "ained": 5705,
      "opportunities": 5706,
      "course": 5707,
      "avor": 5708,
      "tell": 5709,
      "contemporary": 5710,
      "initi": 5711,
      "proble": 5712,
      "fill": 5713,
      "comb": 5714,
      "must": 5715,
      "ared": 5716,
      "yourself": 5717,
      "include": 5718,
      "collec": 5719,
      "technology": 5720,
      "phys": 5721,
      "ft": 5722,
      "anced": 5723,
      "benef": 5724,
      "conf": 5725,
      "offer": 5726,
      "growth": 5727,
      "seem": 5728,
      "asp": 5729,
      "list": 5730,
      "home": 5731,
      "insights": 5732,
      "development": 5733,
      "guid": 5734,
      "gover": 5735,
      "rele": 5736,
      "here": 5737,
      "ergy": 5738,
      "strategies": 5739,
      "language": 5740,
      "roduction": 5741,
      "pite": 5742,
      "building": 5743,
      "nat": 5744,
      "encour": 5745,
      "working": 5746,
      "ax": 5747,
      "impact": 5748,
      "surr": 5749,
      "very": 5750,
      "ounding": 5751,
      "fy": 5752,
      "evol": 5753,
      "ject": 5754,
      "ah": 5755,
      "sym": 5756,
      "body": 5757,
      "polic": 5758,
      "ters": 5759,
      "inary": 5760,
      "arr": 5761,
      "character": 5762,
      "oking": 5763,
      "lay": 5764,
      "aking": 5765,
      "ounds": 5766,
      "piec": 5767,
      "uce": 5768,
      "dive": 5769,
      "ablish": 5770,
      "similar": 5771,
      "explor": 5772,
      ".,": 5773,
      "aces": 5774,
      "poli": 5775,
      "behavi": 5776,
      "publ": 5777,
      "instead": 5778,
      "If": 5779,
      "values": 5780,
      "mil": 5781,
      "ables": 5782,
      "atch": 5783,
      "associ": 5784,
      "spe": 5785,
      "pati": 5786,
      "law": 5787,
      "mag": 5788,
      "lives": 5789,
      "recogn": 5790,
      "enjoy": 5791,
      "integr": 5792,
      "Well": 5793,
      "arding": 5794,
      "Des": 5795,
      "Rem": 5796,
      "stru": 5797,
      "far": 5798,
      "ward": 5799,
      "appe": 5800,
      "exist": 5801,
      "elec": 5802,
      "knowledge": 5803,
      "relig": 5804,
      "perspec": 5805,
      "rect": 5806,
      "fiel": 5807,
      "oks": 5808,
      "questions": 5809,
      "aries": 5810,
      "aling": 5811,
      "nar": 5812,
      "uro": 5813,
      "pects": 5814,
      "proper": 5815,
      "More": 5816,
      "elements": 5817,
      "navig": 5818,
      "Is": 5819,
      "tran": 5820,
      "draw": 5821,
      "connections": 5822,
      "auth": 5823,
      "sometimes": 5824,
      "acing": 5825,
      "Em": 5826,
      "ho": 5827,
      "incorpor": 5828,
      "access": 5829,
      "cy": 5830,
      "aspects": 5831,
      "rich": 5832,
      "cas": 5833,
      "vari": 5834,
      "reduc": 5835,
      "nature": 5836,
      "ming": 5837,
      "Conclusion": 5838,
      "ending": 5839,
      "patterns": 5840,
      "eve": 5841,
      "relationships": 5842,
      "factors": 5843,
      "econom": 5844,
      "ustom": 5845,
      "pain": 5846,
      "practice": 5847,
      "Exam": 5848,
      "eper": 5849,
      "att": 5850,
      "him": 5851,
      "Ap": 5852,
      "elf": 5853,
      "adap": 5854,
      "eness": 5855,
      "always": 5856,
      "becom": 5857,
      "peri": 5858,
      "communication": 5859,
      "employ": 5860,
      "Fin": 5861,
      "princi": 5862,
      "nu": 5863,
      "events": 5864,
      "energy": 5865,
      "online": 5866,
      "culture": 5867,
      "ince": 5868,
      "dig": 5869,
      "def": 5870,
      "collabor": 5871,
      "ca": 5872,
      "analy": 5873,
      "elcome": 5874,
      "still": 5875,
      "imagine": 5876,
      "methods": 5877,
      "years": 5878,
      "ators": 5879,
      "Introduction": 5880,
      "deeper": 5881,
      "transform": 5882,
      "dam": 5883,
      "profession": 5884,
      "natural": 5885,
      "wonder": 5886,
      "Remember": 5887,
      "dev": 5888,
      "further": 5889,
      "Alice": 5890,
      "head": 5891,
      "resul": 5892,
      "whe": 5893,
      "quality": 5894,
      "treat": 5895,
      "cording": 5896,
      "Af": 5897,
      "plement": 5898,
      "Addition": 5899,
      "ale": 5900,
      "surrounding": 5901,
      "Bob": 5902,
      "Mo": 5903,
      "begin": 5904,
      "society": 5905,
      "having": 5906,
      "Additionally": 5907,
      "non": 5908,
      "school": 5909,
      "until": 5910,
      "contribute": 5911,
      "doc": 5912,
      "ali": 5913,
      "group": 5914,
      "deter": 5915,
      "youn": 5916,
      "inking": 5917,
      "big": 5918,
      "Hi": 5919,
      "Wor": 5920,
      "Le": 5921,
      "overall": 5922,
      "best": 5923,
      "custom": 5924,
      "establish": 5925,
      "mom": 5926,
      "involves": 5927,
      "anti": 5928,
      "count": 5929,
      "prim": 5930,
      "improve": 5931,
      "context": 5932,
      "ysis": 5933,
      "meas": 5934,
      "govern": 5935,
      "forts": 5936,
      "ulations": 5937,
      "concept": 5938,
      "istic": 5939,
      "scienti": 5940,
      "types": 5941,
      "control": 5942,
      "ancing": 5943,
      "build": 5944,
      "love": 5945,
      "pression": 5946,
      "achi": 5947,
      "mind": 5948,
      "ening": 5949,
      "ama": 5950,
      "ape": 5951,
      "nor": 5952,
      "common": 5953,
      "makes": 5954,
      "reas": 5955,
      "meaning": 5956,
      "izations": 5957,
      "shared": 5958,
      "Once": 5959,
      "Unit": 5960,
      "associated": 5961,
      "narra": 5962,
      "popular": 5963,
      "ength": 5964,
      "ditions": 5965,
      "space": 5966,
      "Welcome": 5967,
      "compon": 5968,
      "ced": 5969,
      "sust": 5970,
      "fig": 5971,
      "materials": 5972,
      "effici": 5973,
      "pass": 5974,
      "activities": 5975,
      "Moreover": 5976,
      "saf": 5977,
      "abilities": 5978,
      "Or": 5979,
      "words": 5980,
      "requir": 5981,
      "should": 5982,
      "bey": 5983,
      "ingly": 5984,
      "orig": 5985,
      "ids": 5986,
      "near": 5987,
      "Tod": 5988,
      "particip": 5989,
      "advent": 5990,
      "There": 5991,
      "ush": 5992,
      "setting": 5993,
      "10": 5994,
      "hold": 5995,
      "ats": 5996,
      "emerg": 5997,
      "Pl": 5998,
      "Today": 5999,
      "ban": 6000,
      "value": 6001,
      "efforts": 6002,
      "beyond": 6003,
      "Just": 6004,
      "Indi": 6005,
      "Sh": 6006,
      "Your": 6007,
      "mem": 6008,
      "living": 6009,
      "room": 6010,
      "importance": 6011,
      "ologies": 6012,
      "delve": 6013,
      "acters": 6014,
      "sist": 6015,
      "vo": 6016,
      "ules": 6017,
      "reach": 6018,
      "aps": 6019,
      "hind": 6020,
      "After": 6021,
      "principles": 6022,
      "Eng": 6023,
      "serve": 6024,
      "onstr": 6025,
      "leading": 6026,
      "Dis": 6027,
      "following": 6028,
      "regarding": 6029,
      "situ": 6030,
      "cei": 6031,
      "away": 6032,
      "esting": 6033,
      "ulation": 6034,
      "ping": 6035,
      "Over": 6036,
      "ari": 6037,
      "groups": 6038,
      "phas": 6039,
      "ensuring": 6040,
      "sch": 6041,
      "three": 6042,
      "visual": 6043,
      "--------------------------------": 6044,
      "study": 6045,
      "conditions": 6046,
      "idence": 6047,
      "education": 6048,
      "multiple": 6049,
      "genous": 6050,
      "curr": 6051,
      "type": 6052,
      "early": 6053,
      "centur": 6054,
      "ands": 6055,
      "point": 6056,
      "continue": 6057,
      "changes": 6058,
      "fostering": 6059,
      "erous": 6060,
      "next": 6061,
      "fil": 6062,
      "inal": 6063,
      "color": 6064,
      "Cont": 6065,
      "good": 6066,
      "past": 6067,
      "Sim": 6068,
      "ental": 6069,
      "case": 6070,
      "thought": 6071,
      "demonstr": 6072,
      "stic": 6073,
      "Cour": 6074,
      "scen": 6075,
      "book": 6076,
      "optim": 6077,
      "ues": 6078,
      "ises": 6079,
      "music": 6080,
      "dynam": 6081,
      "themselves": 6082,
      "da": 6083,
      "powerful": 6084,
      "reflec": 6085,
      "favor": 6086,
      "consist": 6087,
      "preser": 6088,
      "hard": 6089,
      "simple": 6090,
      "pic": 6091,
      "gam": 6092,
      "stre": 6093,
      "ograph": 6094,
      "young": 6095,
      "American": 6096,
      "uses": 6097,
      "global": 6098,
      "stay": 6099,
      "engaging": 6100,
      "needs": 6101,
      "auti": 6102,
      "management": 6103,
      "shape": 6104,
      "comput": 6105,
      "step": 6106,
      "necessary": 6107,
      "offers": 6108,
      "dri": 6109,
      "stu": 6110,
      "amp": 6111,
      "path": 6112,
      "public": 6113,
      "physical": 6114,
      "aged": 6115,
      "finding": 6116,
      "taking": 6117,
      "bor": 6118,
      "mun": 6119,
      "cra": 6120,
      "environmental": 6121,
      "Further": 6122,
      "gl": 6123,
      "respect": 6124,
      "identity": 6125,
      "lies": 6126,
      "sharing": 6127,
      "ifically": 6128,
      "science": 6129,
      "areas": 6130,
      "behind": 6131,
      "model": 6132,
      "ply": 6133,
      "characters": 6134,
      "dic": 6135,
      "assion": 6136,
      "avel": 6137,
      "gor": 6138,
      "atives": 6139,
      "hab": 6140,
      "Di": 6141,
      "yet": 6142,
      "minim": 6143,
      "Gr": 6144,
      "embr": 6145,
      "safe": 6146,
      "sustain": 6147,
      "Co": 6148,
      "ints": 6149,
      "learned": 6150,
      "belief": 6151,
      "ped": 6152,
      "ecting": 6153,
      "whether": 6154,
      "Can": 6155,
      "relev": 6156,
      "jo": 6157,
      "Furthermore": 6158,
      "national": 6159,
      "conclusion": 6160,
      "ition": 6161,
      "attention": 6162,
      "effec": 6163,
      "allowing": 6164,
      "kind": 6165,
      "):": 6166,
      "mor": 6167,
      "digital": 6168,
      "tex": 6169,
      "arri": 6170,
      "ots": 6171,
      "narratives": 6172,
      "ope": 6173,
      "landsc": 6174,
      "medi": 6175,
      "ising": 6176,
      "First": 6177,
      "sty": 6178,
      "gender": 6179,
      "filled": 6180,
      "ened": 6181,
      "embers": 6182,
      "mal": 6183,
      "concepts": 6184,
      "resili": 6185,
      "shaping": 6186,
      "Col": 6187,
      "oes": 6188,
      "decid": 6189,
      "anci": 6190,
      "broad": 6191,
      "?\"": 6192,
      "cir": 6193,
      "novel": 6194,
      "inten": 6195,
      "Tim": 6196,
      "tili": 6197,
      "perspectives": 6198,
      "..": 6199,
      "eval": 6200,
      "clear": 6201,
      "run": 6202,
      "gain": 6203,
      "crim": 6204,
      "wr": 6205,
      "thinking": 6206,
      "everything": 6207,
      "insp": 6208,
      "psy": 6209,
      "fiction": 6210,
      "pose": 6211,
      "dren": 6212,
      "books": 6213,
      "ier": 6214,
      "comfort": 6215,
      "appreciate": 6216,
      "meet": 6217,
      "plays": 6218,
      "ails": 6219,
      "levels": 6220,
      "construc": 6221,
      "going": 6222,
      "ub": 6223,
      "log": 6224,
      "cultures": 6225,
      "Course": 6226,
      "structure": 6227,
      "return": 6228,
      "emphas": 6229,
      "performance": 6230,
      "members": 6231,
      "trust": 6232,
      "tar": 6233,
      "aving": 6234,
      "same": 6235,
      "behavior": 6236,
      "providing": 6237,
      "implement": 6238,
      "cool": 6239,
      "environment": 6240,
      "ane": 6241,
      "onic": 6242,
      "processes": 6243,
      "great": 6244,
      "strugg": 6245,
      "erc": 6246,
      "tig": 6247,
      "sof": 6248,
      "interest": 6249,
      "spirit": 6250,
      "vide": 6251,
      "active": 6252,
      "women": 6253,
      "Me": 6254,
      "mess": 6255,
      "acts": 6256,
      "smo": 6257,
      "altern": 6258,
      "ined": 6259,
      "python": 6260,
      "ouse": 6261,
      "rights": 6262,
      "Rec": 6263,
      "wide": 6264,
      "utions": 6265,
      "concerns": 6266,
      "ilit": 6267,
      "wa": 6268,
      "vil": 6269,
      "timately": 6270,
      "super": 6271,
      "tow": 6272,
      "np": 6273,
      "ered": 6274,
      "since": 6275,
      "parts": 6276,
      "hes": 6277,
      "She": 6278,
      "possible": 6279,
      "promoting": 6280,
      "enough": 6281,
      "plat": 6282,
      "analysis": 6283,
      "steps": 6284,
      "ems": 6285,
      "healthcare": 6286,
      "components": 6287,
      "mach": 6288,
      "plot": 6289,
      "ershi": 6290,
      "flow": 6291,
      "order": 6292,
      "started": 6293,
      "audi": 6294,
      "challenging": 6295,
      "bring": 6296,
      "stress": 6297,
      "political": 6298,
      "intric": 6299,
      "reading": 6300,
      "beauti": 6301,
      "Se": 6302,
      "literature": 6303,
      "Expl": 6304,
      "actly": 6305,
      "ie": 6306,
      "Euro": 6307,
      "und": 6308,
      "enge": 6309,
      "From": 6310,
      "bers": 6311,
      "pan": 6312,
      "ource": 6313,
      "depend": 6314,
      "tru": 6315,
      "points": 6316,
      "transp": 6317,
      "features": 6318,
      "benefits": 6319,
      "readers": 6320,
      "ann": 6321,
      "particularly": 6322,
      "tically": 6323,
      "accur": 6324,
      "require": 6325,
      "code": 6326,
      "term": 6327,
      "regular": 6328,
      "maintaining": 6329,
      "structures": 6330,
      "test": 6331,
      "playing": 6332,
      "heart": 6333,
      "sugg": 6334,
      "avail": 6335,
      "rather": 6336,
      "examining": 6337,
      "aster": 6338,
      "tors": 6339,
      "field": 6340,
      "ards": 6341,
      "inc": 6342,
      "core": 6343,
      "significantly": 6344,
      "201": 6345,
      "xim": 6346,
      "Ear": 6347,
      "prefer": 6348,
      "convers": 6349,
      "igh": 6350,
      "icate": 6351,
      "positive": 6352,
      "perf": 6353,
      "heard": 6354,
      "animals": 6355,
      "themes": 6356,
      "bs": 6357,
      "oney": 6358,
      "star": 6359,
      "ously": 6360,
      "favorite": 6361,
      "humans": 6362,
      "intel": 6363,
      "decision": 6364,
      "oto": 6365,
      "Before": 6366,
      "imag": 6367,
      "vital": 6368,
      "break": 6369,
      "sib": 6370,
      "stri": 6371,
      "lessons": 6372,
      "tural": 6373,
      "Finally": 6374,
      "talk": 6375,
      "lines": 6376,
      "ible": 6377,
      "game": 6378,
      "Europe": 6379,
      "bit": 6380,
      "artists": 6381,
      "psych": 6382,
      "named": 6383,
      "adapt": 6384,
      "say": 6385,
      "confl": 6386,
      "fair": 6387,
      "resh": 6388,
      "media": 6389,
      "etal": 6390,
      "determin": 6391,
      "quick": 6392,
      "py": 6393,
      "isn": 6394,
      "Similar": 6395,
      "ses": 6396,
      "cell": 6397,
      "region": 6398,
      "awar": 6399,
      "ches": 6400,
      "tre": 6401,
      "challenge": 6402,
      "numerous": 6403,
      "iter": 6404,
      "incredi": 6405,
      "state": 6406,
      "fel": 6407,
      "aut": 6408,
      "provides": 6409,
      "organizations": 6410,
      "ren": 6411,
      "ging": 6412,
      "traditions": 6413,
      "Key": 6414,
      "presents": 6415,
      "aves": 6416,
      "needed": 6417,
      "children": 6418,
      "diversity": 6419,
      "inside": 6420,
      "mix": 6421,
      "incorporating": 6422,
      "became": 6423,
      "Sy": 6424,
      "balance": 6425,
      "echan": 6426,
      "suppor": 6427,
      "method": 6428,
      "specifically": 6429,
      "duce": 6430,
      "refers": 6431,
      "becomes": 6432,
      "tries": 6433,
      "reh": 6434,
      "uni": 6435,
      "number": 6436,
      "promote": 6437,
      "event": 6438,
      "ges": 6439,
      "engine": 6440,
      "compreh": 6441,
      "pret": 6442,
      "resilience": 6443,
      "services": 6444,
      "little": 6445,
      "cele": 6446,
      "libr": 6447,
      "trig": 6448,
      "ready": 6449,
      "daily": 6450,
      "engage": 6451,
      "ideas": 6452,
      "encoun": 6453,
      "post": 6454,
      "enced": 6455,
      "tem": 6456,
      "tor": 6457,
      "bur": 6458,
      "bound": 6459,
      "Am": 6460,
      "feelings": 6461,
      "generations": 6462,
      "ancial": 6463,
      "defin": 6464,
      "religious": 6465,
      "connected": 6466,
      "Cre": 6467,
      "athy": 6468,
      "effectively": 6469,
      "prevent": 6470,
      "wal": 6471,
      "Pre": 6472,
      "target": 6473,
      "equip": 6474,
      "Chris": 6475,
      "beautiful": 6476,
      "requires": 6477,
      "vision": 6478,
      "fric": 6479,
      "bol": 6480,
      "faced": 6481,
      "oing": 6482,
      "nother": 6483,
      "decided": 6484,
      "applications": 6485,
      "ash": 6486,
      "apes": 6487,
      "significance": 6488,
      "bon": 6489,
      "sound": 6490,
      "chec": 6491,
      "remains": 6492,
      "tivating": 6493,
      "Inst": 6494,
      "once": 6495,
      "famil": 6496,
      "==": 6497,
      "author": 6498,
      "doing": 6499,
      "Each": 6500,
      "ancient": 6501,
      "recei": 6502,
      "question": 6503,
      "bir": 6504,
      "solutions": 6505,
      "clim": 6506,
      "May": 6507,
      "tract": 6508,
      "photo": 6509,
      "designed": 6510,
      "harm": 6511,
      "pt": 6512,
      "ativity": 6513,
      "exerc": 6514,
      "Another": 6515,
      "az": 6516,
      "market": 6517,
      "lig": 6518,
      "sibility": 6519,
      "No": 6520,
      "celebr": 6521,
      "eti": 6522,
      "economic": 6523,
      "ball": 6524,
      "osity": 6525,
      "responsible": 6526,
      "sun": 6527,
      "fying": 6528,
      "free": 6529,
      "awareness": 6530,
      "Li": 6531,
      "Christi": 6532,
      "give": 6533,
      "Per": 6534,
      "safety": 6535,
      "gather": 6536,
      "Our": 6537,
      "exactly": 6538,
      "ements": 6539,
      "emotions": 6540,
      "successful": 6541,
      "therap": 6542,
      "sw": 6543,
      "force": 6544,
      "ghting": 6545,
      "iliar": 6546,
      "inspir": 6547,
      "extra": 6548,
      "ny": 6549,
      "Str": 6550,
      "ries": 6551,
      "New": 6552,
      "approaches": 6553,
      "healthy": 6554,
      "ially": 6555,
      "urity": 6556,
      "aste": 6557,
      "rules": 6558,
      "Despite": 6559,
      "dial": 6560,
      "aimed": 6561,
      "emotional": 6562,
      "seeking": 6563,
      "travel": 6564,
      "plants": 6565,
      "involve": 6566,
      "team": 6567,
      "pay": 6568,
      "asks": 6569,
      "oid": 6570,
      "businesses": 6571,
      "thoughts": 6572,
      "policy": 6573,
      "effective": 6574,
      "result": 6575,
      "()": 6576,
      "strength": 6577,
      "rap": 6578,
      "stitu": 6579,
      "beliefs": 6580,
      "involved": 6581,
      "que": 6582,
      "outcomes": 6583,
      "Similarly": 6584,
      "evalu": 6585,
      "acc": 6586,
      "large": 6587,
      "societal": 6588,
      "Lo": 6589,
      "distri": 6590,
      "appreciation": 6591,
      "influence": 6592,
      "inv": 6593,
      "discuss": 6594,
      "few": 6595,
      "gar": 6596,
      "loss": 6597,
      "comple": 6598,
      "sal": 6599,
      "area": 6600,
      "Afric": 6601,
      "direct": 6602,
      "fa": 6603,
      "World": 6604,
      "appropri": 6605,
      "Think": 6606,
      "decisions": 6607,
      "empathy": 6608,
      "ases": 6609,
      "onto": 6610,
      "Res": 6611,
      "achieve": 6612,
      "examine": 6613,
      "expected": 6614,
      "sources": 6615,
      "hor": 6616,
      "reed": 6617,
      "problems": 6618,
      "mic": 6619,
      "sex": 6620,
      "array": 6621,
      "reve": 6622,
      "calcul": 6623,
      "Jo": 6624,
      "began": 6625,
      "stit": 6626,
      "short": 6627,
      "aper": 6628,
      "shif": 6629,
      "aspect": 6630,
      "ustice": 6631,
      "selec": 6632,
      "clean": 6633,
      "addressing": 6634,
      "frequ": 6635,
      "ongoing": 6636,
      "live": 6637,
      "commit": 6638,
      "risk": 6639,
      "perfect": 6640,
      "lock": 6641,
      "Dev": 6642,
      "iny": 6643,
      "relationship": 6644,
      "Here": 6645,
      "ild": 6646,
      "ished": 6647,
      "Man": 6648,
      "ene": 6649,
      "isms": 6650,
      "city": 6651,
      "problem": 6652,
      "descri": 6653,
      "fit": 6654,
      "according": 6655,
      "given": 6656,
      "priv": 6657,
      "country": 6658,
      "Their": 6659,
      "acks": 6660,
      "hom": 6661,
      "uter": 6662,
      "pieces": 6663,
      "gorith": 6664,
      "medical": 6665,
      "deb": 6666,
      "training": 6667,
      "ption": 6668,
      "navigate": 6669,
      "researchers": 6670,
      "idea": 6671,
      "bust": 6672,
      "mechan": 6673,
      "identify": 6674,
      "master": 6675,
      "roles": 6676,
      "sl": 6677,
      "ug": 6678,
      "$$": 6679,
      "Happ": 6680,
      "iosity": 6681,
      "sense": 6682,
      "astic": 6683,
      "financial": 6684,
      "rop": 6685,
      "enter": 6686,
      "18": 6687,
      "redi": 6688,
      "rec": 6689,
      "maybe": 6690,
      "remain": 6691,
      "Inter": 6692,
      "matter": 6693,
      "conven": 6694,
      "elines": 6695,
      "Tit": 6696,
      "broader": 6697,
      "incredible": 6698,
      "asting": 6699,
      "true": 6700,
      "progress": 6701,
      "families": 6702,
      "bodies": 6703,
      "itable": 6704,
      "topics": 6705,
      "relevant": 6706,
      "legal": 6707,
      "ery": 6708,
      "available": 6709,
      "Many": 6710,
      "thema": 6711,
      "Cl": 6712,
      "Mar": 6713,
      "Throughout": 6714,
      "Par": 6715,
      "protect": 6716,
      "entire": 6717,
      "came": 6718,
      "money": 6719,
      "compan": 6720,
      "innovative": 6721,
      "despite": 6722,
      "connection": 6723,
      "growing": 6724,
      "ingredi": 6725,
      "pen": 6726,
      "oman": 6727,
      "diffic": 6728,
      "atis": 6729,
      "century": 6730,
      "program": 6731,
      "pecially": 6732,
      "facilit": 6733,
      "countries": 6734,
      "electr": 6735,
      "via": 6736,
      "takes": 6737,
      "express": 6738,
      "especially": 6739,
      "piece": 6740,
      "stat": 6741,
      "watch": 6742,
      "left": 6743,
      "neg": 6744,
      "ule": 6745,
      "cut": 6746,
      "increased": 6747,
      "nal": 6748,
      "pet": 6749,
      "pon": 6750,
      "ensures": 6751,
      "full": 6752,
      "heav": 6753,
      "creative": 6754,
      "results": 6755,
      "wid": 6756,
      "orts": 6757,
      "recent": 6758,
      "technologies": 6759,
      "wanted": 6760,
      "frame": 6761,
      "else": 6762,
      "Pol": 6763,
      "---": 6764,
      "tail": 6765,
      "amid": 6766,
      "Happy": 6767,
      "creativity": 6768,
      "created": 6769,
      "studying": 6770,
      "Gu": 6771,
      "Dr": 6772,
      "advoc": 6773,
      "hid": 6774,
      "ont": 6775,
      "asked": 6776,
      "sider": 6777,
      "later": 6778,
      "eep": 6779,
      "idd": 6780,
      "table": 6781,
      "sens": 6782,
      "temper": 6783,
      "lived": 6784,
      "vention": 6785,
      "cies": 6786,
      "Title": 6787,
      "ours": 6788,
      "Po": 6789,
      "curiosity": 6790,
      "trying": 6791,
      "During": 6792,
      "position": 6793,
      "environments": 6794,
      "policies": 6795,
      "range": 6796,
      "ourselves": 6797,
      "wis": 6798,
      "Sar": 6799,
      "increasingly": 6800,
      "tiz": 6801,
      "enth": 6802,
      "amazing": 6803,
      "programs": 6804,
      "competi": 6805,
      "enhance": 6806,
      "exten": 6807,
      "computer": 6808,
      "intricate": 6809,
      "Stud": 6810,
      "itation": 6811,
      "eter": 6812,
      "utes": 6813,
      "period": 6814,
      "options": 6815,
      "!\"": 6816,
      "grad": 6817,
      "image": 6818,
      "informed": 6819,
      "fall": 6820,
      "Techn": 6821,
      "Med": 6822,
      "evidence": 6823,
      "assess": 6824,
      "osop": 6825,
      "continued": 6826,
      "deli": 6827,
      "Consider": 6828,
      "atory": 6829,
      "rup": 6830,
      "collaboration": 6831,
      "sibilities": 6832,
      "refer": 6833,
      "Python": 6834,
      "felt": 6835,
      "algorith": 6836,
      "compared": 6837,
      "items": 6838,
      "job": 6839,
      "Less": 6840,
      "single": 6841,
      "involving": 6842,
      "migr": 6843,
      "advance": 6844,
      "amoun": 6845,
      "docu": 6846,
      "ilosop": 6847,
      "prev": 6848,
      "ership": 6849,
      "utili": 6850,
      "ident": 6851,
      "akes": 6852,
      "platforms": 6853,
      "telling": 6854,
      "oud": 6855,
      "investig": 6856,
      "Reg": 6857,
      "doesn": 6858,
      "developing": 6859,
      "elling": 6860,
      "chem": 6861,
      "mission": 6862,
      "discovered": 6863,
      "Her": 6864,
      "helping": 6865,
      "add": 6866,
      "War": 6867,
      "Instead": 6868,
      "forward": 6869,
      "dre": 6870,
      "word": 6871,
      "sequences": 6872,
      "situations": 6873,
      "justice": 6874,
      "cross": 6875,
      "greater": 6876,
      "colon": 6877,
      "goals": 6878,
      "typ": 6879,
      "dynamics": 6880,
      "size": 6881,
      "Earth": 6882,
      "plant": 6883,
      "colors": 6884,
      "ju": 6885,
      "secre": 6886,
      "Cul": 6887,
      "aid": 6888,
      "differences": 6889,
      "pto": 6890,
      "adventure": 6891,
      "writing": 6892,
      "illustr": 6893,
      "represents": 6894,
      "never": 6895,
      "ator": 6896,
      "Cur": 6897,
      "jud": 6898,
      "arily": 6899,
      "ton": 6900,
      "ife": 6901,
      "dialog": 6902,
      "Why": 6903,
      "ths": 6904,
      "auto": 6905,
      "child": 6906,
      "games": 6907,
      "cup": 6908,
      "subst": 6909,
      "discussions": 6910,
      "ral": 6911,
      "experim": 6912,
      "Sp": 6913,
      "studies": 6914,
      "outside": 6915,
      "nutri": 6916,
      "ror": 6917,
      "worldwide": 6918,
      "encounter": 6919,
      "aced": 6920,
      "coming": 6921,
      "name": 6922,
      "Ne": 6923,
      "tasks": 6924,
      "professionals": 6925,
      "hood": 6926,
      "Mr": 6927,
      "risks": 6928,
      "carefully": 6929,
      "fied": 6930,
      "orders": 6931,
      "Ro": 6932,
      "adem": 6933,
      "argu": 6934,
      "medic": 6935,
      "warm": 6936,
      "engagement": 6937,
      "vibr": 6938,
      "roll": 6939,
      "lied": 6940,
      "ls": 6941,
      "prep": 6942,
      "disci": 6943,
      "appear": 6944,
      "God": 6945,
      "functions": 6946,
      "hope": 6947,
      "expression": 6948,
      "conduc": 6949,
      "inf": 6950,
      "shop": 6951,
      "denti": 6952,
      "resist": 6953,
      "consum": 6954,
      "ank": 6955,
      "cu": 6956,
      "Pe": 6957,
      "eds": 6958,
      "atic": 6959,
      "hon": 6960,
      "offering": 6961,
      "quickly": 6962,
      "iddle": 6963,
      "Sarah": 6964,
      "projects": 6965,
      "fication": 6966,
      "changing": 6967,
      "posed": 6968,
      "expect": 6969,
      "threat": 6970,
      "Christian": 6971,
      "avoid": 6972,
      "exploration": 6973,
      "adop": 6974,
      "suff": 6975,
      "contr": 6976,
      "All": 6977,
      "fir": 6978,
      "models": 6979,
      "familiar": 6980,
      "myster": 6981,
      "looking": 6982,
      "outh": 6983,
      "herit": 6984,
      "expand": 6985,
      "sustainable": 6986,
      "ox": 6987,
      "lier": 6988,
      "appl": 6989,
      "appropriate": 6990,
      "ably": 6991,
      "verse": 6992,
      "craf": 6993,
      "house": 6994,
      "sent": 6995,
      "climate": 6996,
      "encing": 6997,
      "embracing": 6998,
      "spiritual": 6999,
      "stop": 7000,
      "connect": 7001,
      "objects": 7002,
      "itch": 7003,
      "parents": 7004,
      "eco": 7005,
      "production": 7006,
      "neigh": 7007,
      "archit": 7008,
      "fresh": 7009,
      "ditional": 7010,
      "alle": 7011,
      "played": 7012,
      "aly": 7013,
      "late": 7014,
      "elop": 7015,
      "serves": 7016,
      "alternative": 7017,
      "original": 7018,
      "devices": 7019,
      "products": 7020,
      "cli": 7021,
      "planning": 7022,
      "discipl": 7023,
      "primary": 7024,
      "highli": 7025,
      "IV": 7026,
      "smooth": 7027,
      "brain": 7028,
      "simply": 7029,
      "istr": 7030,
      "faith": 7031,
      "close": 7032,
      "visit": 7033,
      "ordinary": 7034,
      "town": 7035,
      "serving": 7036,
      "ingredients": 7037,
      "ute": 7038,
      "Develop": 7039,
      "account": 7040,
      "sounds": 7041,
      "spaces": 7042,
      "landscape": 7043,
      "wind": 7044,
      "terms": 7045,
      "worry": 7046,
      "rout": 7047,
      "places": 7048,
      "iel": 7049,
      "oil": 7050,
      "print": 7051,
      "inct": 7052,
      "adjust": 7053,
      "ina": 7054,
      "Prac": 7055,
      "movements": 7056,
      "amidst": 7057,
      "kers": 7058,
      "wise": 7059,
      "philosop": 7060,
      "related": 7061,
      "III": 7062,
      "fu": 7063,
      "ive": 7064,
      "Example": 7065,
      "paper": 7066,
      "schol": 7067,
      "itive": 7068,
      "comprehen": 7069,
      "mathema": 7070,
      "movement": 7071,
      "syn": 7072,
      "Research": 7073,
      "enab": 7074,
      "ethical": 7075,
      "project": 7076,
      "jur": 7077,
      "loved": 7078,
      "ither": 7079,
      "zz": 7080,
      "Ben": 7081,
      "ellow": 7082,
      "cooking": 7083,
      "boundaries": 7084,
      "ck": 7085,
      "Alex": 7086,
      "eyes": 7087,
      "versity": 7088,
      "images": 7089,
      "era": 7090,
      "sor": 7091,
      "higher": 7092,
      "uck": 7093,
      "His": 7094,
      "innovation": 7095,
      "scientists": 7096,
      "200": 7097,
      "fem": 7098,
      "Bl": 7099,
      "occur": 7100,
      "indigenous": 7101,
      "careful": 7102,
      "cles": 7103,
      "Lesson": 7104,
      "ek": 7105,
      "mas": 7106,
      "Keep": 7107,
      "answ": 7108,
      "guide": 7109,
      "nic": 7110,
      "activity": 7111,
      "professional": 7112,
      "align": 7113,
      "texts": 7114,
      "users": 7115,
      "settings": 7116,
      "tool": 7117,
      "examples": 7118,
      "interpret": 7119,
      "tis": 7120,
      "numbers": 7121,
      "poss": 7122,
      "blo": 7123,
      "fant": 7124,
      "alongside": 7125,
      "cook": 7126,
      "viol": 7127,
      "moment": 7128,
      "tual": 7129,
      "assist": 7130,
      "ustry": 7131,
      "seas": 7132,
      "harmon": 7133,
      "Nor": 7134,
      "hidden": 7135,
      "feeling": 7136,
      "interests": 7137,
      "hands": 7138,
      "kids": 7139,
      "ken": 7140,
      "authors": 7141,
      "night": 7142,
      "bution": 7143,
      "courage": 7144,
      "didn": 7145,
      "instruc": 7146,
      "diag": 7147,
      "Identi": 7148,
      "famous": 7149,
      "government": 7150,
      "treatment": 7151,
      "sle": 7152,
      "company": 7153,
      "pursu": 7154,
      "solving": 7155,
      "istics": 7156,
      "managing": 7157,
      "advanced": 7158,
      "feed": 7159,
      "took": 7160,
      "evolution": 7161,
      "anx": 7162,
      "choose": 7163,
      "vast": 7164,
      "earlier": 7165,
      "independ": 7166,
      "dimen": 7167,
      "Ph": 7168,
      "collective": 7169,
      "reducing": 7170,
      "AI": 7171,
      "Sometimes": 7172,
      "input": 7173,
      "current": 7174,
      "My": 7175,
      "provided": 7176,
      "bed": 7177,
      "entially": 7178,
      "initial": 7179,
      "rest": 7180,
      "sely": 7181,
      "choices": 7182,
      "ishing": 7183,
      "forces": 7184,
      "Together": 7185,
      "distinct": 7186,
      "surface": 7187,
      "__": 7188,
      "embark": 7189,
      "De": 7190,
      "heat": 7191,
      "rain": 7192,
      "reduce": 7193,
      "Indigenous": 7194,
      "Commun": 7195,
      "Exploring": 7196,
      "effects": 7197,
      "institu": 7198,
      "monit": 7199,
      "tit": 7200,
      "phen": 7201,
      "days": 7202,
      "check": 7203,
      "sports": 7204,
      "ights": 7205,
      "servation": 7206,
      "pressure": 7207,
      "Histor": 7208,
      "laws": 7209,
      "solid": 7210,
      "separ": 7211,
      "however": 7212,
      "categ": 7213,
      "ease": 7214,
      "meaningful": 7215,
      "thes": 7216,
      "schools": 7217,
      "prec": 7218,
      "install": 7219,
      "Who": 7220,
      "scientific": 7221,
      "languages": 7222,
      "rapid": 7223,
      "citiz": 7224,
      "guidance": 7225,
      "usually": 7226,
      "fundam": 7227,
      "faces": 7228,
      "ago": 7229,
      "typically": 7230,
      "networks": 7231,
      "mut": 7232,
      "passion": 7233,
      "qual": 7234,
      "eties": 7235,
      "enable": 7236,
      "ultimately": 7237,
      "reci": 7238,
      "realm": 7239,
      "heritage": 7240,
      "really": 7241,
      "habit": 7242,
      "wellbeing": 7243,
      "ults": 7244,
      "unexpected": 7245,
      "happens": 7246,
      "seen": 7247,
      "cop": 7248,
      "ored": 7249,
      "etry": 7250,
      "asts": 7251,
      "peace": 7252,
      "measures": 7253,
      "cum": 7254,
      "ote": 7255,
      "rac": 7256,
      "four": 7257,
      "ised": 7258,
      "scre": 7259,
      "text": 7260,
      "prepar": 7261,
      "gets": 7262,
      "Bo": 7263,
      "knows": 7264,
      "weight": 7265,
      "encies": 7266,
      "manage": 7267,
      "sian": 7268,
      "trends": 7269,
      "written": 7270,
      "measure": 7271,
      "ricul": 7272,
      "ligence": 7273,
      "machine": 7274,
      "reality": 7275,
      "------------": 7276,
      "resol": 7277,
      "cam": 7278,
      "arts": 7279,
      "thri": 7280,
      "section": 7281,
      "inher": 7282,
      "lik": 7283,
      "tware": 7284,
      "vibrant": 7285,
      "existing": 7286,
      "icious": 7287,
      "drawing": 7288,
      "America": 7289,
      "acting": 7290,
      "rep": 7291,
      "Sec": 7292,
      "Although": 7293,
      "fru": 7294,
      "Don": 7295,
      "United": 7296,
      "rix": 7297,
      "curious": 7298,
      "cause": 7299,
      "sites": 7300,
      "lam": 7301,
      "ays": 7302,
      "exciting": 7303,
      "lif": 7304,
      "slow": 7305,
      "accep": 7306,
      "user": 7307,
      "ners": 7308,
      "realized": 7309,
      "alike": 7310,
      "ned": 7311,
      "network": 7312,
      "auty": 7313,
      "figures": 7314,
      "Using": 7315,
      "enables": 7316,
      "keeping": 7317,
      "architect": 7318,
      "Gen": 7319,
      "Joh": 7320,
      "security": 7321,
      "mers": 7322,
      "Examples": 7323,
      "pack": 7324,
      "scenari": 7325,
      "encourages": 7326,
      "rates": 7327,
      "getting": 7328,
      "ata": 7329,
      "Life": 7330,
      "enabling": 7331,
      "apply": 7332,
      "details": 7333,
      "ulate": 7334,
      "advant": 7335,
      "eye": 7336,
      "friendly": 7337,
      "academ": 7338,
      "advancements": 7339,
      "preserving": 7340,
      "mit": 7341,
      "industry": 7342,
      "invest": 7343,
      "icts": 7344,
      "Activity": 7345,
      "enhancing": 7346,
      "international": 7347,
      "focused": 7348,
      "representation": 7349,
      "consequences": 7350,
      "itself": 7351,
      "inters": 7352,
      "bri": 7353,
      "sters": 7354,
      "gard": 7355,
      "introduc": 7356,
      "basic": 7357,
      "deeply": 7358,
      "atter": 7359,
      "mention": 7360,
      "sexual": 7361,
      "adding": 7362,
      "reflect": 7363,
      "gene": 7364,
      "species": 7365,
      "wasn": 7366,
      "interesting": 7367,
      "haps": 7368,
      "wondered": 7369,
      "feature": 7370,
      "wisdom": 7371,
      "transport": 7372,
      "fields": 7373,
      "cases": 7374,
      "bot": 7375,
      "sam": 7376,
      "counter": 7377,
      "contain": 7378,
      "recor": 7379,
      "aren": 7380,
      "ades": 7381,
      "wild": 7382,
      "road": 7383,
      "conversations": 7384,
      "cells": 7385,
      "optimal": 7386,
      "avors": 7387,
      "populations": 7388,
      "icated": 7389,
      "leaders": 7390,
      "sequently": 7391,
      "experienced": 7392,
      "Spec": 7393,
      "equal": 7394,
      "wood": 7395,
      "atively": 7396,
      "Even": 7397,
      "flo": 7398,
      "nur": 7399,
      "empower": 7400,
      "theory": 7401,
      "che": 7402,
      "ench": 7403,
      "captivating": 7404,
      "views": 7405,
      "rand": 7406,
      "easy": 7407,
      "tition": 7408,
      "tiny": 7409,
      "Def": 7410,
      "established": 7411,
      "thr": 7412,
      "sition": 7413,
      "said": 7414,
      "predic": 7415,
      "worth": 7416,
      "emerging": 7417,
      "ought": 7418,
      "formation": 7419,
      "trigu": 7420,
      "library": 7421,
      "green": 7422,
      "becoming": 7423,
      "couldn": 7424,
      "beauty": 7425,
      "dict": 7426,
      "dialogue": 7427,
      "second": 7428,
      "survi": 7429,
      "compassion": 7430,
      "literary": 7431,
      "urban": 7432,
      "figure": 7433,
      "creation": 7434,
      "inspired": 7435,
      "edge": 7436,
      "artistic": 7437,
      "hours": 7438,
      "believe": 7439,
      "ager": 7440,
      "resulting": 7441,
      "Bu": 7442,
      "Sam": 7443,
      "additional": 7444,
      "magical": 7445,
      "served": 7446,
      "web": 7447,
      "veget": 7448,
      "patients": 7449,
      "ied": 7450,
      "wo": 7451,
      "inner": 7452,
      "brea": 7453,
      "gent": 7454,
      "conver": 7455,
      "educational": 7456,
      "creatures": 7457,
      "moving": 7458,
      "knowing": 7459,
      "Mus": 7460,
      "search": 7461,
      "Set": 7462,
      "phenomen": 7463,
      "closer": 7464,
      "sn": 7465,
      "behaviors": 7466,
      "capable": 7467,
      "processing": 7468,
      "civil": 7469,
      "graphy": 7470,
      "gained": 7471,
      "micro": 7472,
      "Learn": 7473,
      "agre": 7474,
      "Next": 7475,
      "fundamental": 7476,
      "actually": 7477,
      "improved": 7478,
      "implications": 7479,
      "discussing": 7480,
      "sensi": 7481,
      "Ab": 7482,
      "thor": 7483,
      "required": 7484,
      "possess": 7485,
      "lands": 7486,
      "squ": 7487,
      "param": 7488,
      "series": 7489,
      "tales": 7490,
      "therapy": 7491,
      "ouch": 7492,
      "indust": 7493,
      "shows": 7494,
      "radi": 7495,
      "layers": 7496,
      "belong": 7497,
      "Rel": 7498,
      "Jam": 7499,
      "Mean": 7500,
      "truly": 7501,
      "lower": 7502,
      "closely": 7503,
      "obj": 7504,
      "shapes": 7505,
      "Maybe": 7506,
      "store": 7507,
      "soon": 7508,
      "interactions": 7509,
      "software": 7510,
      "cost": 7511,
      "board": 7512,
      "analyze": 7513,
      "Health": 7514,
      "resid": 7515,
      "guidelines": 7516,
      "produce": 7517,
      "initiatives": 7518,
      "states": 7519,
      "ased": 7520,
      "operations": 7521,
      "owers": 7522,
      "sil": 7523,
      "load": 7524,
      "depending": 7525,
      "izes": 7526,
      "functional": 7527,
      "sets": 7528,
      "Sci": 7529,
      "expectations": 7530,
      "Ref": 7531,
      "icial": 7532,
      "tivate": 7533,
      "bes": 7534,
      "illing": 7535,
      "acces": 7536,
      "surpr": 7537,
      "notic": 7538,
      "preferences": 7539,
      "Sup": 7540,
      "emer": 7541,
      "whole": 7542,
      "matrix": 7543,
      "practicing": 7544,
      "larger": 7545,
      "ultane": 7546,
      "const": 7547,
      "storytelling": 7548,
      "technique": 7549,
      "findings": 7550,
      "pressions": 7551,
      "fast": 7552,
      "secure": 7553,
      "stronger": 7554,
      "navigating": 7555,
      "mine": 7556,
      "video": 7557,
      "profound": 7558,
      "soft": 7559,
      "companies": 7560,
      "usi": 7561,
      "response": 7562,
      "brid": 7563,
      "practical": 7564,
      "giving": 7565,
      "resource": 7566,
      "emerged": 7567,
      "ai": 7568,
      "push": 7569,
      "styles": 7570,
      "mentioned": 7571,
      "limit": 7572,
      "toward": 7573,
      "got": 7574,
      "causing": 7575,
      "recognize": 7576,
      "arg": 7577,
      "Then": 7578,
      "Cho": 7579,
      "ibility": 7580,
      "stream": 7581,
      "planet": 7582,
      "shar": 7583,
      "dedicated": 7584,
      "...": 7585,
      "roots": 7586,
      "milli": 7587,
      "reedom": 7588,
      "demand": 7589,
      "Real": 7590,
      "leaving": 7591,
      "technological": 7592,
      "moments": 7593,
      "unch": 7594,
      "ended": 7595,
      "thentic": 7596,
      "helped": 7597,
      "inspire": 7598,
      "ghter": 7599,
      "fulness": 7600,
      "sus": 7601,
      "Ser": 7602,
      "controll": 7603,
      "symbol": 7604,
      "previous": 7605,
      "Not": 7606,
      "Car": 7607,
      "European": 7608,
      "primarily": 7609,
      "margin": 7610,
      "butions": 7611,
      "maj": 7612,
      "turing": 7613,
      "institutions": 7614,
      "rought": 7615,
      "States": 7616,
      "anyone": 7617,
      "vity": 7618,
      "tax": 7619,
      "comfortable": 7620,
      "either": 7621,
      "looked": 7622,
      "spread": 7623,
      "zed": 7624,
      "sed": 7625,
      "product": 7626,
      "box": 7627,
      "Consequently": 7628,
      "bing": 7629,
      "Jew": 7630,
      "cat": 7631,
      "Time": 7632,
      "norms": 7633,
      "exhi": 7634,
      "continues": 7635,
      "anging": 7636,
      "saw": 7637,
      "poses": 7638,
      "distribution": 7639,
      "African": 7640,
      "Fam": 7641,
      "acqu": 7642,
      "eved": 7643,
      "Mon": 7644,
      "ites": 7645,
      "fish": 7646,
      "iety": 7647,
      "season": 7648,
      "compet": 7649,
      "Char": 7650,
      "happened": 7651,
      "satis": 7652,
      "analyzing": 7653,
      "voc": 7654,
      "supporting": 7655,
      "breaking": 7656,
      "amount": 7657,
      "rent": 7658,
      "wit": 7659,
      "messages": 7660,
      "Fe": 7661,
      "societies": 7662,
      "memory": 7663,
      "claim": 7664,
      "consci": 7665,
      "ypes": 7666,
      "sympto": 7667,
      "Last": 7668,
      "identities": 7669,
      "reson": 7670,
      "eral": 7671,
      "virtual": 7672,
      "acknow": 7673,
      "notable": 7674,
      "root": 7675,
      "Ul": 7676,
      "enthusi": 7677,
      "ternal": 7678,
      "improving": 7679,
      "patient": 7680,
      "noticed": 7681,
      "upd": 7682,
      "discrim": 7683,
      "goal": 7684,
      "discovery": 7685,
      "starting": 7686,
      "stage": 7687,
      "intro": 7688,
      "affect": 7689,
      "diagno": 7690,
      "ultaneously": 7691,
      "vary": 7692,
      "iring": 7693,
      "maxim": 7694,
      "ock": 7695,
      "skin": 7696,
      "feat": 7697,
      "evolving": 7698,
      "protection": 7699,
      "According": 7700,
      "craft": 7701,
      "ptions": 7702,
      "correct": 7703,
      "application": 7704,
      "brow": 7705,
      "facing": 7706,
      "Ob": 7707,
      "animal": 7708,
      "designs": 7709,
      "Pers": 7710,
      "win": 7711,
      "People": 7712,
      "underlying": 7713,
      "conve": 7714,
      "Design": 7715,
      "adults": 7716,
      "rein": 7717,
      "Use": 7718,
      "experiment": 7719,
      "itary": 7720,
      "acking": 7721,
      "tradition": 7722,
      "operation": 7723,
      "blood": 7724,
      "smaller": 7725,
      "barri": 7726,
      "domin": 7727,
      "fellow": 7728,
      "asking": 7729,
      "Br": 7730,
      "Its": 7731,
      "engthen": 7732,
      "graphic": 7733,
      "Hum": 7734,
      "intelligence": 7735,
      "swe": 7736,
      "write": 7737,
      "properties": 7738,
      "direc": 7739,
      "explored": 7740,
      "conflicts": 7741,
      "minds": 7742,
      "audiences": 7743,
      "venile": 7744,
      "instru": 7745,
      "random": 7746,
      "sia": 7747,
      "smart": 7748,
      "location": 7749,
      "track": 7750,
      "hal": 7751,
      "abo": 7752,
      "inherent": 7753,
      "costs": 7754,
      "volution": 7755,
      "Historical": 7756,
      "odes": 7757,
      "determination": 7758,
      "compass": 7759,
      "bio": 7760,
      "estim": 7761,
      "issue": 7762,
      "illi": 7763,
      "Among": 7764,
      "motiv": 7765,
      "front": 7766,
      "patience": 7767,
      "ector": 7768,
      "Trans": 7769,
      "bul": 7770,
      "eli": 7771,
      "arm": 7772,
      "centuries": 7773,
      "document": 7774,
      "difficult": 7775,
      "efficient": 7776,
      "seemingly": 7777,
      "chr": 7778,
      "thous": 7779,
      "posure": 7780,
      "sem": 7781,
      "responsibility": 7782,
      "capac": 7783,
      "foot": 7784,
      "train": 7785,
      "ows": 7786,
      "Both": 7787,
      "style": 7788,
      "landscapes": 7789,
      "chemical": 7790,
      "insight": 7791,
      "countless": 7792,
      "service": 7793,
      "suggest": 7794,
      "manip": 7795,
      "picture": 7796,
      "built": 7797,
      "teaching": 7798,
      "acles": 7799,
      "hot": 7800,
      "limited": 7801,
      "negative": 7802,
      "System": 7803,
      "exts": 7804,
      "foundation": 7805,
      "Dec": 7806,
      "complexity": 7807,
      "ventions": 7808,
      "robust": 7809,
      "trade": 7810,
      "student": 7811,
      "artic": 7812,
      "BT": 7813,
      "lens": 7814,
      "prote": 7815,
      "flex": 7816,
      "circum": 7817,
      "antly": 7818,
      "esty": 7819,
      "ills": 7820,
      "knew": 7821,
      "citizens": 7822,
      "',": 7823,
      "recognizing": 7824,
      "compo": 7825,
      "respond": 7826,
      "delicious": 7827,
      "quite": 7828,
      "remark": 7829,
      "define": 7830,
      "reveal": 7831,
      "brought": 7832,
      "moun": 7833,
      "matters": 7834,
      "conscious": 7835,
      "gently": 7836,
      "last": 7837,
      "Jap": 7838,
      "ardless": 7839,
      "benefit": 7840,
      "situation": 7841,
      "vul": 7842,
      "computers": 7843,
      "))": 7844,
      "turned": 7845,
      "politics": 7846,
      "thereby": 7847,
      "dispar": 7848,
      "acies": 7849,
      "proced": 7850,
      "sleep": 7851,
      "breath": 7852,
      "engineering": 7853,
      "prior": 7854,
      "ga": 7855,
      "consistent": 7856,
      "normal": 7857,
      "possibilities": 7858,
      "fra": 7859,
      "desired": 7860,
      "Japan": 7861,
      "Su": 7862,
      "ficial": 7863,
      "resistance": 7864,
      "marginal": 7865,
      "hic": 7866,
      "camp": 7867,
      "impacts": 7868,
      "medicine": 7869,
      "ero": 7870,
      "()`": 7871,
      "perspective": 7872,
      "persist": 7873,
      "inspiration": 7874,
      "regional": 7875,
      "iss": 7876,
      "whenever": 7877,
      "soil": 7878,
      "anxiety": 7879,
      "Gre": 7880,
      "Modern": 7881,
      "layer": 7882,
      "temperature": 7883,
      "freedom": 7884,
      "Har": 7885,
      "assi": 7886,
      "unders": 7887,
      "eving": 7888,
      "painting": 7889,
      "encourage": 7890,
      "damage": 7891,
      "colonial": 7892,
      "final": 7893,
      "perhaps": 7894,
      "easily": 7895,
      "rate": 7896,
      "hous": 7897,
      "Meanwhile": 7898,
      "reason": 7899,
      "capture": 7900,
      "ceed": 7901,
      "authentic": 7902,
      "whose": 7903,
      "religion": 7904,
      "agon": 7905,
      "ticism": 7906,
      "Of": 7907,
      "pressing": 7908,
      "complete": 7909,
      "Ger": 7910,
      "dynamic": 7911,
      "Such": 7912,
      "cand": 7913,
      "ums": 7914,
      "glass": 7915,
      "fear": 7916,
      "label": 7917,
      "VI": 7918,
      "disease": 7919,
      "remarkable": 7920,
      "scale": 7921,
      "indic": 7922,
      "tailored": 7923,
      "Qu": 7924,
      "cognitive": 7925,
      "Ultimately": 7926,
      "fail": 7927,
      "seek": 7928,
      "lic": 7929,
      "creates": 7930,
      "communicate": 7931,
      "Art": 7932,
      "potentially": 7933,
      "healing": 7934,
      "mechanisms": 7935,
      "counts": 7936,
      "modi": 7937,
      "math": 7938,
      "extraordinary": 7939,
      "cutting": 7940,
      "prob": 7941,
      "dishes": 7942,
      "remin": 7943,
      "reduced": 7944,
      "Data": 7945,
      "electric": 7946,
      "ahead": 7947,
      "external": 7948,
      "strengthen": 7949,
      "equipment": 7950,
      "English": 7951,
      "white": 7952,
      "traum": 7953,
      "vulner": 7954,
      "Num": 7955,
      "facilitate": 7956,
      "difference": 7957,
      "Lastly": 7958,
      "Ge": 7959,
      "ony": 7960,
      "thorough": 7961,
      "asy": 7962,
      "listening": 7963,
      "valid": 7964,
      "song": 7965,
      "etc": 7966,
      "zes": 7967,
      "explained": 7968,
      "opportunity": 7969,
      "Au": 7970,
      "exercise": 7971,
      "exec": 7972,
      "holds": 7973,
      "intrigu": 7974,
      "regions": 7975,
      "genre": 7976,
      "exposure": 7977,
      "conventional": 7978,
      "waiting": 7979,
      "ori": 7980,
      "clin": 7981,
      "background": 7982,
      "conflict": 7983,
      "rh": 7984,
      "frequently": 7985,
      "minutes": 7986,
      "mutual": 7987,
      "icians": 7988,
      "cons": 7989,
      "dance": 7990,
      "mel": 7991,
      "ler": 7992,
      "examination": 7993,
      "lean": 7994,
      "?**": 7995,
      "holders": 7996,
      "makers": 7997,
      "ministr": 7998,
      "kin": 7999,
      "gy": 8000,
      "encompass": 8001,
      "ancy": 8002,
      "colle": 8003,
      "effort": 8004,
      "ians": 8005,
      "cities": 8006,
      "sole": 8007,
      "diction": 8008,
      "speak": 8009,
      "considering": 8010,
      "algorithms": 8011,
      "source": 8012,
      "sustainability": 8013,
      "Timmy": 8014,
      "relax": 8015,
      "base": 8016,
      "obst": 8017,
      "Fun": 8018,
      "object": 8019,
      "pal": 8020,
      "accurate": 8021,
      "hur": 8022,
      "Go": 8023,
      ".'": 8024,
      "eters": 8025,
      "military": 8026,
      "goes": 8027,
      "writers": 8028,
      "inclusive": 8029,
      "organization": 8030,
      "Bri": 8031,
      "race": 8032,
      "talking": 8033,
      "content": 8034,
      "ectives": 8035,
      "requiring": 8036,
      "repe": 8037,
      "expressions": 8038,
      "major": 8039,
      "academic": 8040,
      "barriers": 8041,
      "grounds": 8042,
      "tun": 8043,
      "went": 8044,
      "nearby": 8045,
      "Pres": 8046,
      "la": 8047,
      "simultaneously": 8048,
      "earn": 8049,
      "ufact": 8050,
      "complexities": 8051,
      "15": 8052,
      "thetic": 8053,
      "sac": 8054,
      "parties": 8055,
      "anything": 8056,
      "dit": 8057,
      "phone": 8058,
      "wait": 8059,
      "fab": 8060,
      "fing": 8061,
      "Are": 8062,
      "osen": 8063,
      "circumst": 8064,
      "already": 8065,
      "extract": 8066,
      "confidence": 8067,
      "contributing": 8068,
      "save": 8069,
      "touch": 8070,
      "symptoms": 8071,
      "debates": 8072,
      "waste": 8073,
      "Eff": 8074,
      "learners": 8075,
      "condition": 8076,
      "anch": 8077,
      "fire": 8078,
      "immedi": 8079,
      "facts": 8080,
      "incorporate": 8081,
      "Care": 8082,
      "bols": 8083,
      "commitment": 8084,
      "connecting": 8085,
      "novels": 8086,
      "dark": 8087,
      "Op": 8088,
      "efficiency": 8089,
      "detail": 8090,
      "requirements": 8091,
      "affecting": 8092,
      "passed": 8093,
      "sou": 8094,
      "forget": 8095,
      "wall": 8096,
      "tour": 8097,
      "omed": 8098,
      "device": 8099,
      "voice": 8100,
      "coord": 8101,
      "easier": 8102,
      "osing": 8103,
      "ticip": 8104,
      "purpose": 8105,
      "solve": 8106,
      "contact": 8107,
      "ouble": 8108,
      "includes": 8109,
      "leads": 8110,
      "minimize": 8111,
      "Guid": 8112,
      "covering": 8113,
      "hear": 8114,
      "thousands": 8115,
      "div": 8116,
      "Vis": 8117,
      "cing": 8118,
      "denly": 8119,
      "ography": 8120,
      "taken": 8121,
      "estern": 8122,
      "grand": 8123,
      "gment": 8124,
      "injur": 8125,
      "contexts": 8126,
      "du": 8127,
      "gir": 8128,
      "wards": 8129,
      "datas": 8130,
      "iet": 8131,
      "focusing": 8132,
      "happy": 8133,
      "characteristics": 8134,
      "tree": 8135,
      "recomm": 8136,
      "lin": 8137,
      "walk": 8138,
      "signs": 8139,
      "weather": 8140,
      "stake": 8141,
      "`,": 8142,
      "cry": 8143,
      "join": 8144,
      "iction": 8145,
      "predict": 8146,
      "featuring": 8147,
      "stood": 8148,
      "zy": 8149,
      "Social": 8150,
      "hers": 8151,
      "everyday": 8152,
      "increasing": 8153,
      "scri": 8154,
      "sea": 8155,
      "bling": 8156,
      "listen": 8157,
      "career": 8158,
      "bar": 8159,
      "ense": 8160,
      "implementing": 8161,
      "Tur": 8162,
      "happen": 8163,
      "approxim": 8164,
      "circumstances": 8165,
      "regulations": 8166,
      "voices": 8167,
      "mir": 8168,
      "versi": 8169,
      "reflection": 8170,
      "vot": 8171,
      "pul": 8172,
      "orial": 8173,
      "inate": 8174,
      "deliver": 8175,
      "integrating": 8176,
      "struggles": 8177,
      "increase": 8178,
      "constit": 8179,
      "symbols": 8180,
      "eating": 8181,
      "vehic": 8182,
      "rist": 8183,
      "Every": 8184,
      "standards": 8185,
      "feedback": 8186,
      "meals": 8187,
      "exercises": 8188,
      "AD": 8189,
      "lip": 8190,
      "hero": 8191
    },
    "merges": [
      [
        "i",
        "n"
      ],
      [
        "t",
        "h"
      ],
      [
        "e",
        "r"
      ],
      [
        "a",
        "n"
      ],
      [
        "e",
        "s"
      ],
      [
        "o",
        "n"
      ],
      [
        "t",
        "i"
      ],
      [
        "e",
        "n"
      ],
      [
        "in",
        "g"
      ],
      [
        "o",
        "r"
      ],
      [
        "a",
        "l"
      ],
      [
        "r",
        "e"
      ],
      [
        "o",
        "u"
      ],
      [
        "an",
        "d"
      ],
      [
        "a",
        "t"
      ],
      [
        "th",
        "e"
      ],
      [
        "a",
        "r"
      ],
      [
        "s",
        "t"
      ],
      [
        "e",
        "d"
      ],
      [
        "t",
        "o"
      ],
      [
        "ti",
        "on"
      ],
      [
        "l",
        "e"
      ],
      [
        "i",
        "t"
      ],
      [
        "i",
        "s"
      ],
      [
        "o",
        "f"
      ],
      [
        "i",
        "c"
      ],
      [
        "o",
        "m"
      ],
      [
        "a",
        "c"
      ],
      [
        "en",
        "t"
      ],
      [
        "a",
        "s"
      ],
      [
        "e",
        "l"
      ],
      [
        "e",
        "c"
      ],
      [
        "r",
        "o"
      ],
      [
        "a",
        "tion"
      ],
      [
        "i",
        "l"
      ],
      [
        "-",
        "-"
      ],
      [
        "o",
        "l"
      ],
      [
        "o",
        "w"
      ],
      [
        "f",
        "or"
      ],
      [
        "s",
        "i"
      ],
      [
        "c",
        "h"
      ],
      [
        "u",
        "r"
      ],
      [
        "v",
        "e"
      ],
      [
        "l",
        "y"
      ],
      [
        "e",
        "t"
      ],
      [
        "er",
        "s"
      ],
      [
        "a",
        "d"
      ],
      [
        "u",
        "n"
      ],
      [
        "e",
        "x"
      ],
      [
        "c",
        "e"
      ],
      [
        "ou",
        "r"
      ],
      [
        "c",
        "on"
      ],
      [
        "a",
        "b"
      ],
      [
        "l",
        "i"
      ],
      [
        "a",
        "m"
      ],
      [
        "e",
        "m"
      ],
      [
        "u",
        "l"
      ],
      [
        "g",
        "h"
      ],
      [
        "u",
        "s"
      ],
      [
        "w",
        "h"
      ],
      [
        "d",
        "i"
      ],
      [
        "a",
        "p"
      ],
      [
        "i",
        "r"
      ],
      [
        "a",
        "g"
      ],
      [
        "i",
        "d"
      ],
      [
        "v",
        "er"
      ],
      [
        "es",
        "s"
      ],
      [
        "p",
        "l"
      ],
      [
        "t",
        "r"
      ],
      [
        "c",
        "om"
      ],
      [
        "t",
        "er"
      ],
      [
        "i",
        "th"
      ],
      [
        "a",
        "y"
      ],
      [
        "t",
        "s"
      ],
      [
        "i",
        "m"
      ],
      [
        "T",
        "h"
      ],
      [
        "p",
        "r"
      ],
      [
        "p",
        "ro"
      ],
      [
        "s",
        "e"
      ],
      [
        "s",
        "u"
      ],
      [
        "w",
        "ith"
      ],
      [
        "o",
        "p"
      ],
      [
        "at",
        "e"
      ],
      [
        "--",
        "--"
      ],
      [
        "it",
        "y"
      ],
      [
        "ti",
        "c"
      ],
      [
        "b",
        "e"
      ],
      [
        "q",
        "u"
      ],
      [
        "th",
        "er"
      ],
      [
        "al",
        "l"
      ],
      [
        "a",
        "in"
      ],
      [
        "d",
        "e"
      ],
      [
        "m",
        "ent"
      ],
      [
        "ou",
        "t"
      ],
      [
        "s",
        "h"
      ],
      [
        "d",
        "er"
      ],
      [
        "w",
        "e"
      ],
      [
        "a",
        "re"
      ],
      [
        "k",
        "e"
      ],
      [
        "c",
        "i"
      ],
      [
        "r",
        "i"
      ],
      [
        "ou",
        "n"
      ],
      [
        "th",
        "at"
      ],
      [
        "u",
        "t"
      ],
      [
        "y",
        "ou"
      ],
      [
        "n",
        "e"
      ],
      [
        "s",
        "p"
      ],
      [
        "p",
        "er"
      ],
      [
        "l",
        "o"
      ],
      [
        "m",
        "e"
      ],
      [
        "es",
        "e"
      ],
      [
        "o",
        "d"
      ],
      [
        "w",
        "or"
      ],
      [
        "st",
        "r"
      ],
      [
        "g",
        "r"
      ],
      [
        "y",
        "our"
      ],
      [
        "i",
        "es"
      ],
      [
        "o",
        "t"
      ],
      [
        "ou",
        "gh"
      ],
      [
        "om",
        "e"
      ],
      [
        "s",
        "o"
      ],
      [
        "tion",
        "s"
      ],
      [
        "r",
        "es"
      ],
      [
        "u",
        "c"
      ],
      [
        "u",
        "re"
      ],
      [
        "ou",
        "s"
      ],
      [
        "ation",
        "s"
      ],
      [
        "the",
        "ir"
      ],
      [
        "t",
        "ing"
      ],
      [
        "in",
        "e"
      ],
      [
        "l",
        "d"
      ],
      [
        "h",
        "e"
      ],
      [
        "il",
        "l"
      ],
      [
        "f",
        "f"
      ],
      [
        "u",
        "m"
      ],
      [
        "f",
        "r"
      ],
      [
        "p",
        "or"
      ],
      [
        "I",
        "n"
      ],
      [
        "g",
        "e"
      ],
      [
        "c",
        "an"
      ],
      [
        "i",
        "f"
      ],
      [
        "or",
        "e"
      ],
      [
        "i",
        "z"
      ],
      [
        "an",
        "ce"
      ],
      [
        "d",
        "s"
      ],
      [
        "com",
        "p"
      ],
      [
        "an",
        "t"
      ],
      [
        "a",
        "v"
      ],
      [
        "ic",
        "al"
      ],
      [
        "c",
        "l"
      ],
      [
        "c",
        "re"
      ],
      [
        "c",
        "o"
      ],
      [
        "ti",
        "ve"
      ],
      [
        "k",
        "ing"
      ],
      [
        "h",
        "i"
      ],
      [
        "i",
        "g"
      ],
      [
        "si",
        "on"
      ],
      [
        "d",
        "ing"
      ],
      [
        "*",
        "*"
      ],
      [
        "gh",
        "t"
      ],
      [
        "en",
        "ti"
      ],
      [
        "p",
        "o"
      ],
      [
        "at",
        "ing"
      ],
      [
        "v",
        "es"
      ],
      [
        "on",
        "e"
      ],
      [
        "ti",
        "es"
      ],
      [
        "b",
        "y"
      ],
      [
        "f",
        "e"
      ],
      [
        "c",
        "es"
      ],
      [
        "e",
        "v"
      ],
      [
        "d",
        "is"
      ],
      [
        "er",
        "e"
      ],
      [
        "e",
        "ver"
      ],
      [
        "u",
        "al"
      ],
      [
        "for",
        "m"
      ],
      [
        "th",
        "is"
      ],
      [
        "m",
        "o"
      ],
      [
        "p",
        "ar"
      ],
      [
        "the",
        "y"
      ],
      [
        "ac",
        "h"
      ],
      [
        "ab",
        "le"
      ],
      [
        "ab",
        "out"
      ],
      [
        "on",
        "g"
      ],
      [
        "m",
        "a"
      ],
      [
        "----",
        "----"
      ],
      [
        "en",
        "ce"
      ],
      [
        "li",
        "ke"
      ],
      [
        "p",
        "e"
      ],
      [
        "th",
        "ese"
      ],
      [
        "u",
        "st"
      ],
      [
        "ec",
        "t"
      ],
      [
        "r",
        "ough"
      ],
      [
        "ent",
        "s"
      ],
      [
        "it",
        "s"
      ],
      [
        "in",
        "to"
      ],
      [
        "ag",
        "e"
      ],
      [
        "p",
        "re"
      ],
      [
        "oun",
        "d"
      ],
      [
        "s",
        "ome"
      ],
      [
        "t",
        "e"
      ],
      [
        "u",
        "p"
      ],
      [
        "con",
        "t"
      ],
      [
        "f",
        "ul"
      ],
      [
        "fr",
        "om"
      ],
      [
        "st",
        "or"
      ],
      [
        "ac",
        "t"
      ],
      [
        "Th",
        "e"
      ],
      [
        "st",
        "and"
      ],
      [
        "an",
        "s"
      ],
      [
        "o",
        "g"
      ],
      [
        "ar",
        "y"
      ],
      [
        "v",
        "id"
      ],
      [
        "v",
        "el"
      ],
      [
        "k",
        "s"
      ],
      [
        "en",
        "g"
      ],
      [
        "a",
        "ve"
      ],
      [
        "p",
        "s"
      ],
      [
        "or",
        "s"
      ],
      [
        "el",
        "l"
      ],
      [
        "es",
        "t"
      ],
      [
        "un",
        "der"
      ],
      [
        "h",
        "ow"
      ],
      [
        "t",
        "ur"
      ],
      [
        "in",
        "d"
      ],
      [
        "i",
        "ties"
      ],
      [
        "o",
        "c"
      ],
      [
        "b",
        "o"
      ],
      [
        "t",
        "en"
      ],
      [
        "com",
        "m"
      ],
      [
        "a",
        "st"
      ],
      [
        "n",
        "ow"
      ],
      [
        "ar",
        "n"
      ],
      [
        "p",
        "le"
      ],
      [
        "the",
        "m"
      ],
      [
        "ou",
        "ld"
      ],
      [
        "at",
        "ed"
      ],
      [
        "b",
        "r"
      ],
      [
        "m",
        "an"
      ],
      [
        "in",
        "ter"
      ],
      [
        "o",
        "ver"
      ],
      [
        "por",
        "t"
      ],
      [
        "al",
        "ly"
      ],
      [
        "cl",
        "u"
      ],
      [
        "u",
        "e"
      ],
      [
        "ex",
        "pl"
      ],
      [
        "n",
        "o"
      ],
      [
        "i",
        "le"
      ],
      [
        "b",
        "et"
      ],
      [
        "pr",
        "es"
      ],
      [
        "ment",
        "s"
      ],
      [
        "ec",
        "h"
      ],
      [
        "th",
        "rough"
      ],
      [
        "r",
        "a"
      ],
      [
        "p",
        "h"
      ],
      [
        "w",
        "ay"
      ],
      [
        "i",
        "ous"
      ],
      [
        "le",
        "c"
      ],
      [
        "ur",
        "ing"
      ],
      [
        "en",
        "d"
      ],
      [
        "th",
        "ing"
      ],
      [
        "an",
        "g"
      ],
      [
        "u",
        "d"
      ],
      [
        "i",
        "al"
      ],
      [
        "g",
        "n"
      ],
      [
        "w",
        "ar"
      ],
      [
        "v",
        "ing"
      ],
      [
        "b",
        "ut"
      ],
      [
        "t",
        "y"
      ],
      [
        "g",
        "en"
      ],
      [
        "h",
        "el"
      ],
      [
        "c",
        "ess"
      ],
      [
        "d",
        "uc"
      ],
      [
        "ac",
        "k"
      ],
      [
        "s",
        "er"
      ],
      [
        "ti",
        "m"
      ],
      [
        "c",
        "ul"
      ],
      [
        "i",
        "ght"
      ],
      [
        "ol",
        "og"
      ],
      [
        "le",
        "arn"
      ],
      [
        "o",
        "ther"
      ],
      [
        "m",
        "ore"
      ],
      [
        "s",
        "el"
      ],
      [
        "c",
        "ol"
      ],
      [
        "h",
        "er"
      ],
      [
        "e",
        "p"
      ],
      [
        "ac",
        "e"
      ],
      [
        "so",
        "ci"
      ],
      [
        "i",
        "on"
      ],
      [
        "i",
        "st"
      ],
      [
        "w",
        "ill"
      ],
      [
        "f",
        "l"
      ],
      [
        "ti",
        "v"
      ],
      [
        "Th",
        "is"
      ],
      [
        "d",
        "es"
      ],
      [
        "d",
        "o"
      ],
      [
        "su",
        "ch"
      ],
      [
        "us",
        "e"
      ],
      [
        "i",
        "p"
      ],
      [
        "ar",
        "t"
      ],
      [
        "wh",
        "en"
      ],
      [
        "v",
        "al"
      ],
      [
        "v",
        "ers"
      ],
      [
        "as",
        "s"
      ],
      [
        "C",
        "h"
      ],
      [
        "b",
        "le"
      ],
      [
        "ic",
        "h"
      ],
      [
        "at",
        "er"
      ],
      [
        "en",
        "s"
      ],
      [
        "k",
        "now"
      ],
      [
        "s",
        "y"
      ],
      [
        "ti",
        "me"
      ],
      [
        "o",
        "b"
      ],
      [
        "t",
        "a"
      ],
      [
        "under",
        "stand"
      ],
      [
        "wh",
        "ile"
      ],
      [
        "e",
        "f"
      ],
      [
        "b",
        "ec"
      ],
      [
        "l",
        "es"
      ],
      [
        "sp",
        "ec"
      ],
      [
        "en",
        "c"
      ],
      [
        "h",
        "ave"
      ],
      [
        "C",
        "on"
      ],
      [
        "di",
        "ff"
      ],
      [
        "ow",
        "n"
      ],
      [
        "if",
        "ic"
      ],
      [
        "ech",
        "n"
      ],
      [
        "wh",
        "at"
      ],
      [
        "B",
        "y"
      ],
      [
        "ex",
        "per"
      ],
      [
        "enti",
        "al"
      ],
      [
        "a",
        "u"
      ],
      [
        "is",
        "h"
      ],
      [
        "c",
        "or"
      ],
      [
        "b",
        "er"
      ],
      [
        "i",
        "qu"
      ],
      [
        "wor",
        "k"
      ],
      [
        "ever",
        "y"
      ],
      [
        "W",
        "h"
      ],
      [
        "ex",
        "am"
      ],
      [
        "A",
        "s"
      ],
      [
        "wh",
        "o"
      ],
      [
        "g",
        "o"
      ],
      [
        "comm",
        "un"
      ],
      [
        "tion",
        "al"
      ],
      [
        "v",
        "i"
      ],
      [
        "il",
        "ity"
      ],
      [
        "at",
        "es"
      ],
      [
        "a",
        "tive"
      ],
      [
        "en",
        "ces"
      ],
      [
        "ig",
        "n"
      ],
      [
        "wh",
        "ere"
      ],
      [
        "v",
        "ar"
      ],
      [
        "we",
        "en"
      ],
      [
        "s",
        "c"
      ],
      [
        "re",
        "m"
      ],
      [
        "U",
        "n"
      ],
      [
        "v",
        "ed"
      ],
      [
        "t",
        "echn"
      ],
      [
        "le",
        "t"
      ],
      [
        "p",
        "ers"
      ],
      [
        "diff",
        "er"
      ],
      [
        "pl",
        "ay"
      ],
      [
        "t",
        "ain"
      ],
      [
        "it",
        "e"
      ],
      [
        "f",
        "un"
      ],
      [
        "ne",
        "w"
      ],
      [
        "us",
        "ing"
      ],
      [
        "re",
        "g"
      ],
      [
        "o",
        "k"
      ],
      [
        "bet",
        "ween"
      ],
      [
        "ur",
        "es"
      ],
      [
        "d",
        "r"
      ],
      [
        "wor",
        "ld"
      ],
      [
        "in",
        "t"
      ],
      [
        "am",
        "e"
      ],
      [
        "an",
        "y"
      ],
      [
        "ro",
        "w"
      ],
      [
        "b",
        "u"
      ],
      [
        "of",
        "f"
      ],
      [
        "ap",
        "p"
      ],
      [
        "si",
        "gn"
      ],
      [
        "d",
        "ay"
      ],
      [
        "o",
        "se"
      ],
      [
        "a",
        "ti"
      ],
      [
        "l",
        "l"
      ],
      [
        "s",
        "s"
      ],
      [
        "with",
        "in"
      ],
      [
        "op",
        "le"
      ],
      [
        "f",
        "o"
      ],
      [
        "ec",
        "tion"
      ],
      [
        "id",
        "e"
      ],
      [
        "al",
        "s"
      ],
      [
        "hel",
        "p"
      ],
      [
        "ar",
        "d"
      ],
      [
        "ar",
        "ch"
      ],
      [
        "v",
        "en"
      ],
      [
        "in",
        "clu"
      ],
      [
        "al",
        "th"
      ],
      [
        "el",
        "y"
      ],
      [
        "ic",
        "e"
      ],
      [
        "ther",
        "e"
      ],
      [
        "re",
        "l"
      ],
      [
        "m",
        "in"
      ],
      [
        "res",
        "p"
      ],
      [
        "ul",
        "ar"
      ],
      [
        "#",
        "#"
      ],
      [
        "tic",
        "al"
      ],
      [
        "w",
        "as"
      ],
      [
        "v",
        "ol"
      ],
      [
        "b",
        "l"
      ],
      [
        "ow",
        "er"
      ],
      [
        "i",
        "re"
      ],
      [
        "tr",
        "i"
      ],
      [
        "il",
        "y"
      ],
      [
        "is",
        "m"
      ],
      [
        "g",
        "et"
      ],
      [
        "y",
        "s"
      ],
      [
        "A",
        "n"
      ],
      [
        "c",
        "er"
      ],
      [
        "d",
        "ec"
      ],
      [
        "o",
        "s"
      ],
      [
        "c",
        "ur"
      ],
      [
        "c",
        "r"
      ],
      [
        "in",
        "di"
      ],
      [
        "pe",
        "ople"
      ],
      [
        "f",
        "in"
      ],
      [
        "wh",
        "ich"
      ],
      [
        "exper",
        "i"
      ],
      [
        "re",
        "ad"
      ],
      [
        "t",
        "ure"
      ],
      [
        "e",
        "ar"
      ],
      [
        "ing",
        "s"
      ],
      [
        "s",
        "ur"
      ],
      [
        "--------",
        "--------"
      ],
      [
        "c",
        "are"
      ],
      [
        "m",
        "y"
      ],
      [
        "pr",
        "ac"
      ],
      [
        "F",
        "or"
      ],
      [
        "st",
        "em"
      ],
      [
        "d",
        "uring"
      ],
      [
        "hi",
        "stor"
      ],
      [
        "si",
        "m"
      ],
      [
        "ev",
        "en"
      ],
      [
        "sel",
        "f"
      ],
      [
        "m",
        "ight"
      ],
      [
        "m",
        "ed"
      ],
      [
        "ne",
        "ed"
      ],
      [
        "ad",
        "v"
      ],
      [
        "p",
        "ec"
      ],
      [
        "`",
        "`"
      ],
      [
        "in",
        "st"
      ],
      [
        "b",
        "as"
      ],
      [
        "for",
        "e"
      ],
      [
        "I",
        "m"
      ],
      [
        "ch",
        "all"
      ],
      [
        "pro",
        "vid"
      ],
      [
        "g",
        "u"
      ],
      [
        "le",
        "x"
      ],
      [
        "t",
        "w"
      ],
      [
        "H",
        "ow"
      ],
      [
        "c",
        "all"
      ],
      [
        "v",
        "is"
      ],
      [
        "a",
        "f"
      ],
      [
        "ad",
        "i"
      ],
      [
        "ic",
        "s"
      ],
      [
        "st",
        "ud"
      ],
      [
        "p",
        "ol"
      ],
      [
        "con",
        "si"
      ],
      [
        "m",
        "ay"
      ],
      [
        "l",
        "ow"
      ],
      [
        "h",
        "is"
      ],
      [
        "c",
        "oun"
      ],
      [
        "con",
        "n"
      ],
      [
        "lo",
        "c"
      ],
      [
        "st",
        "er"
      ],
      [
        "n",
        "ot"
      ],
      [
        "ex",
        "t"
      ],
      [
        "a",
        "th"
      ],
      [
        "ce",
        "p"
      ],
      [
        "e",
        "w"
      ],
      [
        "l",
        "ess"
      ],
      [
        "vid",
        "ual"
      ],
      [
        "Th",
        "ese"
      ],
      [
        "ag",
        "ine"
      ],
      [
        "str",
        "uc"
      ],
      [
        "ar",
        "k"
      ],
      [
        "at",
        "ure"
      ],
      [
        "c",
        "ould"
      ],
      [
        "he",
        "alth"
      ],
      [
        "differ",
        "ent"
      ],
      [
        "m",
        "s"
      ],
      [
        "E",
        "x"
      ],
      [
        "o",
        "th"
      ],
      [
        "indi",
        "vidual"
      ],
      [
        "h",
        "um"
      ],
      [
        "e",
        "ff"
      ],
      [
        "h",
        "as"
      ],
      [
        "n",
        "ess"
      ],
      [
        "var",
        "ious"
      ],
      [
        "s",
        "k"
      ],
      [
        "s",
        "ol"
      ],
      [
        "f",
        "ac"
      ],
      [
        "m",
        "er"
      ],
      [
        "li",
        "fe"
      ],
      [
        "ch",
        "o"
      ],
      [
        "co",
        "ver"
      ],
      [
        "s",
        "et"
      ],
      [
        "ter",
        "n"
      ],
      [
        "I",
        "t"
      ],
      [
        "T",
        "o"
      ],
      [
        "e",
        "ach"
      ],
      [
        "sy",
        "stem"
      ],
      [
        "c",
        "ent"
      ],
      [
        "f",
        "ri"
      ],
      [
        "ag",
        "es"
      ],
      [
        "im",
        "port"
      ],
      [
        "on",
        "s"
      ],
      [
        "S",
        "o"
      ],
      [
        "p",
        "ower"
      ],
      [
        "vel",
        "op"
      ],
      [
        "v",
        "ir"
      ],
      [
        "j",
        "ust"
      ],
      [
        "o",
        "y"
      ],
      [
        ")",
        "."
      ],
      [
        "pr",
        "om"
      ],
      [
        "de",
        "velop"
      ],
      [
        "or",
        "ing"
      ],
      [
        "g",
        "an"
      ],
      [
        "al",
        "so"
      ],
      [
        "f",
        "am"
      ],
      [
        "i",
        "a"
      ],
      [
        "val",
        "u"
      ],
      [
        "le",
        "ad"
      ],
      [
        "all",
        "ow"
      ],
      [
        "gh",
        "ts"
      ],
      [
        "b",
        "ack"
      ],
      [
        "ge",
        "ther"
      ],
      [
        "way",
        "s"
      ],
      [
        "a",
        "k"
      ],
      [
        "re",
        "f"
      ],
      [
        "c",
        "ri"
      ],
      [
        "a",
        "il"
      ],
      [
        "th",
        "ose"
      ],
      [
        "re",
        "al"
      ],
      [
        "ation",
        "al"
      ],
      [
        "ar",
        "ound"
      ],
      [
        "d",
        "el"
      ],
      [
        "ab",
        "ility"
      ],
      [
        "re",
        "qu"
      ],
      [
        "l",
        "ed"
      ],
      [
        "f",
        "i"
      ],
      [
        "olog",
        "y"
      ],
      [
        "ap",
        "ter"
      ],
      [
        "d",
        "at"
      ],
      [
        "as",
        "e"
      ],
      [
        "an",
        "c"
      ],
      [
        "th",
        "an"
      ],
      [
        "an",
        "ge"
      ],
      [
        "is",
        "e"
      ],
      [
        "in",
        "vol"
      ],
      [
        "re",
        "at"
      ],
      [
        "in",
        "k"
      ],
      [
        "sign",
        "ific"
      ],
      [
        "S",
        "t"
      ],
      [
        "bo",
        "th"
      ],
      [
        "em",
        "ent"
      ],
      [
        "a",
        "ir"
      ],
      [
        "ad",
        "e"
      ],
      [
        "chall",
        "eng"
      ],
      [
        "pres",
        "ent"
      ],
      [
        "f",
        "ol"
      ],
      [
        "t",
        "ed"
      ],
      [
        "com",
        "e"
      ],
      [
        "a",
        "w"
      ],
      [
        "ic",
        "es"
      ],
      [
        "n",
        "ing"
      ],
      [
        "po",
        "s"
      ],
      [
        "iqu",
        "e"
      ],
      [
        "ch",
        "ar"
      ],
      [
        "pro",
        "cess"
      ],
      [
        "understand",
        "ing"
      ],
      [
        "ir",
        "st"
      ],
      [
        "in",
        "es"
      ],
      [
        "call",
        "ed"
      ],
      [
        "W",
        "e"
      ],
      [
        "em",
        "ber"
      ],
      [
        "ro",
        "ss"
      ],
      [
        "or",
        "y"
      ],
      [
        "iz",
        "ed"
      ],
      [
        "hi",
        "gh"
      ],
      [
        "su",
        "p"
      ],
      [
        "y",
        "ing"
      ],
      [
        "c",
        "ap"
      ],
      [
        "us",
        "ed"
      ],
      [
        "ag",
        "ing"
      ],
      [
        "p",
        "ot"
      ],
      [
        "s",
        "m"
      ],
      [
        "ic",
        "ation"
      ],
      [
        "A",
        "d"
      ],
      [
        "N",
        "ow"
      ],
      [
        "re",
        "e"
      ],
      [
        "tr",
        "ans"
      ],
      [
        "se",
        "e"
      ],
      [
        "man",
        "y"
      ],
      [
        "pers",
        "on"
      ],
      [
        ")",
        ","
      ],
      [
        "w",
        "ould"
      ],
      [
        "fun",
        "c"
      ],
      [
        "on",
        "d"
      ],
      [
        "A",
        "l"
      ],
      [
        "l",
        "and"
      ],
      [
        "fe",
        "el"
      ],
      [
        "an",
        "ces"
      ],
      [
        "en",
        "ds"
      ],
      [
        "b",
        "el"
      ],
      [
        "bu",
        "il"
      ],
      [
        "th",
        "ough"
      ],
      [
        "cul",
        "tur"
      ],
      [
        "su",
        "re"
      ],
      [
        "s",
        "ti"
      ],
      [
        "g",
        "row"
      ],
      [
        "ap",
        "h"
      ],
      [
        "E",
        "n"
      ],
      [
        "ci",
        "al"
      ],
      [
        "comp",
        "lex"
      ],
      [
        "m",
        "on"
      ],
      [
        "cre",
        "ate"
      ],
      [
        "in",
        "cre"
      ],
      [
        "tim",
        "es"
      ],
      [
        "th",
        "en"
      ],
      [
        "ap",
        "pro"
      ],
      [
        "learn",
        "ing"
      ],
      [
        "The",
        "y"
      ],
      [
        "pl",
        "es"
      ],
      [
        "des",
        "ign"
      ],
      [
        "iz",
        "e"
      ],
      [
        "to",
        "gether"
      ],
      [
        "ate",
        "g"
      ],
      [
        "expl",
        "ore"
      ],
      [
        "par",
        "tic"
      ],
      [
        "sion",
        "s"
      ],
      [
        "g",
        "i"
      ],
      [
        "e",
        "qu"
      ],
      [
        "cont",
        "in"
      ],
      [
        "et",
        "y"
      ],
      [
        "m",
        "ain"
      ],
      [
        "h",
        "av"
      ],
      [
        "ese",
        "arch"
      ],
      [
        "in",
        "form"
      ],
      [
        "b",
        "al"
      ],
      [
        "O",
        "ne"
      ],
      [
        "er",
        "g"
      ],
      [
        "ol",
        "d"
      ],
      [
        "t",
        "al"
      ],
      [
        "exam",
        "ple"
      ],
      [
        "vir",
        "on"
      ],
      [
        "pl",
        "an"
      ],
      [
        "c",
        "our"
      ],
      [
        "s",
        "ci"
      ],
      [
        "some",
        "thing"
      ],
      [
        "su",
        "b"
      ],
      [
        "n",
        "um"
      ],
      [
        "r",
        "it"
      ],
      [
        "d",
        "et"
      ],
      [
        "L",
        "et"
      ],
      [
        "sh",
        "ap"
      ],
      [
        "ec",
        "ts"
      ],
      [
        "be",
        "ing"
      ],
      [
        "dat",
        "a"
      ],
      [
        "si",
        "de"
      ],
      [
        "ex",
        "p"
      ],
      [
        "st",
        "s"
      ],
      [
        "id",
        "enti"
      ],
      [
        "tr",
        "adi"
      ],
      [
        "consi",
        "der"
      ],
      [
        "ma",
        "king"
      ],
      [
        "tic",
        "s"
      ],
      [
        "r",
        "y"
      ],
      [
        "to",
        "war"
      ],
      [
        "b",
        "i"
      ],
      [
        "si",
        "ve"
      ],
      [
        "l",
        "ine"
      ],
      [
        "tw",
        "o"
      ],
      [
        "e",
        "ad"
      ],
      [
        "sh",
        "e"
      ],
      [
        "vel",
        "y"
      ],
      [
        "ent",
        "ly"
      ],
      [
        "of",
        "ten"
      ],
      [
        "sh",
        "are"
      ],
      [
        "C",
        "om"
      ],
      [
        "it",
        "al"
      ],
      [
        "un",
        "ique"
      ],
      [
        "ti",
        "ce"
      ],
      [
        "b",
        "re"
      ],
      [
        "g",
        "g"
      ],
      [
        "l",
        "it"
      ],
      [
        "w",
        "ere"
      ],
      [
        "be",
        "fore"
      ],
      [
        "s",
        "ec"
      ],
      [
        "l",
        "ab"
      ],
      [
        "ol",
        "s"
      ],
      [
        "od",
        "s"
      ],
      [
        "s",
        "ing"
      ],
      [
        "Im",
        "agine"
      ],
      [
        "en",
        "viron"
      ],
      [
        "c",
        "ar"
      ],
      [
        "B",
        "ut"
      ],
      [
        "a",
        "use"
      ],
      [
        "c",
        "us"
      ],
      [
        "n",
        "am"
      ],
      [
        "ic",
        "k"
      ],
      [
        "Th",
        "rough"
      ],
      [
        "pr",
        "of"
      ],
      [
        "gr",
        "aph"
      ],
      [
        "ical",
        "ly"
      ],
      [
        "bas",
        "ed"
      ],
      [
        "oth",
        "ers"
      ],
      [
        "d",
        "own"
      ],
      [
        "l",
        "ing"
      ],
      [
        "m",
        "at"
      ],
      [
        "ess",
        "ential"
      ],
      [
        "iz",
        "ing"
      ],
      [
        "signific",
        "ant"
      ],
      [
        "ti",
        "ves"
      ],
      [
        "di",
        "vers"
      ],
      [
        "c",
        "le"
      ],
      [
        "am",
        "ong"
      ],
      [
        "h",
        "and"
      ],
      [
        "di",
        "st"
      ],
      [
        "con",
        "tri"
      ],
      [
        "gen",
        "er"
      ],
      [
        "pro",
        "duc"
      ],
      [
        "pl",
        "ic"
      ],
      [
        "d",
        "em"
      ],
      [
        "im",
        "p"
      ],
      [
        "our",
        "ces"
      ],
      [
        "2",
        "0"
      ],
      [
        "f",
        "ic"
      ],
      [
        "ment",
        "al"
      ],
      [
        "tiv",
        "ity"
      ],
      [
        "d",
        "ue"
      ],
      [
        "ul",
        "t"
      ],
      [
        "an",
        "al"
      ],
      [
        "or",
        "gan"
      ],
      [
        "How",
        "ever"
      ],
      [
        "r",
        "is"
      ],
      [
        "i",
        "ti"
      ],
      [
        "iz",
        "ation"
      ],
      [
        "Y",
        "ou"
      ],
      [
        "c",
        "lo"
      ],
      [
        "f",
        "oc"
      ],
      [
        "sk",
        "ill"
      ],
      [
        "e",
        "y"
      ],
      [
        "fol",
        "low"
      ],
      [
        "bet",
        "ter"
      ],
      [
        "ri",
        "ght"
      ],
      [
        "li",
        "m"
      ],
      [
        "clu",
        "sion"
      ],
      [
        "w",
        "ell"
      ],
      [
        "f",
        "ound"
      ],
      [
        "qu",
        "es"
      ],
      [
        "p",
        "i"
      ],
      [
        "R",
        "e"
      ],
      [
        "soci",
        "al"
      ],
      [
        "resp",
        "on"
      ],
      [
        "h",
        "ad"
      ],
      [
        "d",
        "ed"
      ],
      [
        "hum",
        "an"
      ],
      [
        "me",
        "an"
      ],
      [
        "tur",
        "n"
      ],
      [
        "f",
        "act"
      ],
      [
        "a",
        "ff"
      ],
      [
        "il",
        "ar"
      ],
      [
        "r",
        "esearch"
      ],
      [
        "c",
        "t"
      ],
      [
        "S",
        "ection"
      ],
      [
        "challeng",
        "es"
      ],
      [
        "il",
        "i"
      ],
      [
        "gr",
        "ou"
      ],
      [
        "towar",
        "ds"
      ],
      [
        "ac",
        "ross"
      ],
      [
        "Wh",
        "en"
      ],
      [
        "ect",
        "ed"
      ],
      [
        "at",
        "ely"
      ],
      [
        "pot",
        "ential"
      ],
      [
        "fl",
        "u"
      ],
      [
        "ur",
        "ther"
      ],
      [
        "prac",
        "tic"
      ],
      [
        "con",
        "cep"
      ],
      [
        "in",
        "ess"
      ],
      [
        "ar",
        "ti"
      ],
      [
        "p",
        "op"
      ],
      [
        "pre",
        "ci"
      ],
      [
        "S",
        "te"
      ],
      [
        "li",
        "ght"
      ],
      [
        "h",
        "app"
      ],
      [
        "pro",
        "gr"
      ],
      [
        "is",
        "su"
      ],
      [
        "im",
        "pro"
      ],
      [
        "re",
        "li"
      ],
      [
        "Th",
        "at"
      ],
      [
        "sh",
        "ip"
      ],
      [
        "ual",
        "ly"
      ],
      [
        "er",
        "ing"
      ],
      [
        "ic",
        "i"
      ],
      [
        "h",
        "ar"
      ],
      [
        "ang",
        "u"
      ],
      [
        "i",
        "ps"
      ],
      [
        "po",
        "si"
      ],
      [
        "g",
        "in"
      ],
      [
        ".",
        "\""
      ],
      [
        "individual",
        "s"
      ],
      [
        "f",
        "irst"
      ],
      [
        "experi",
        "ences"
      ],
      [
        "al",
        "ity"
      ],
      [
        "em",
        "b"
      ],
      [
        "iqu",
        "es"
      ],
      [
        "pr",
        "ess"
      ],
      [
        "ion",
        "s"
      ],
      [
        "e",
        "le"
      ],
      [
        "stand",
        "ing"
      ],
      [
        "rel",
        "ation"
      ],
      [
        "w",
        "ater"
      ],
      [
        "k",
        "es"
      ],
      [
        "ro",
        "le"
      ],
      [
        "ser",
        "v"
      ],
      [
        "dis",
        "cus"
      ],
      [
        "Un",
        "der"
      ],
      [
        "dis",
        "cover"
      ],
      [
        "m",
        "od"
      ],
      [
        "m",
        "us"
      ],
      [
        "m",
        "ul"
      ],
      [
        "u",
        "tion"
      ],
      [
        "p",
        "es"
      ],
      [
        "str",
        "ateg"
      ],
      [
        "contri",
        "but"
      ],
      [
        "em",
        "o"
      ],
      [
        "l",
        "ong"
      ],
      [
        "p",
        "ut"
      ],
      [
        "ur",
        "al"
      ],
      [
        "de",
        "p"
      ],
      [
        "pro",
        "t"
      ],
      [
        "st",
        "art"
      ],
      [
        "j",
        "our"
      ],
      [
        "T",
        "r"
      ],
      [
        "me",
        "th"
      ],
      [
        "W",
        "ith"
      ],
      [
        "ag",
        "ement"
      ],
      [
        "ro",
        "duc"
      ],
      [
        "I",
        "I"
      ],
      [
        "ed",
        "uc"
      ],
      [
        "u",
        "ch"
      ],
      [
        "et",
        "s"
      ],
      [
        "wor",
        "ks"
      ],
      [
        "A",
        "c"
      ],
      [
        "``",
        "`"
      ],
      [
        "re",
        "d"
      ],
      [
        "c",
        "in"
      ],
      [
        "expl",
        "oring"
      ],
      [
        "histor",
        "y"
      ],
      [
        "z",
        "e"
      ],
      [
        "ch",
        "ange"
      ],
      [
        "B",
        "e"
      ],
      [
        "em",
        "por"
      ],
      [
        "O",
        "n"
      ],
      [
        "par",
        "t"
      ],
      [
        "in",
        "ing"
      ],
      [
        "do",
        "es"
      ],
      [
        "up",
        "on"
      ],
      [
        "stor",
        "ies"
      ],
      [
        "per",
        "form"
      ],
      [
        "p",
        "u"
      ],
      [
        "el",
        "s"
      ],
      [
        "m",
        "ar"
      ],
      [
        "si",
        "ble"
      ],
      [
        "su",
        "c"
      ],
      [
        "dr",
        "ess"
      ],
      [
        "func",
        "tion"
      ],
      [
        "ag",
        "ain"
      ],
      [
        "1",
        "9"
      ],
      [
        "Ste",
        "p"
      ],
      [
        "on",
        "es"
      ],
      [
        "al",
        "ong"
      ],
      [
        "f",
        "as"
      ],
      [
        "der",
        "n"
      ],
      [
        "system",
        "s"
      ],
      [
        "sh",
        "ow"
      ],
      [
        "o",
        "od"
      ],
      [
        "com",
        "es"
      ],
      [
        "an",
        "other"
      ],
      [
        "ful",
        "ly"
      ],
      [
        "cultur",
        "al"
      ],
      [
        "wh",
        "y"
      ],
      [
        "f",
        "er"
      ],
      [
        "thing",
        "s"
      ],
      [
        "tr",
        "y"
      ],
      [
        "inclu",
        "ding"
      ],
      [
        "g",
        "re"
      ],
      [
        "em",
        "p"
      ],
      [
        "to",
        "o"
      ],
      [
        ":",
        "**"
      ],
      [
        "se",
        "ver"
      ],
      [
        "af",
        "ter"
      ],
      [
        "il",
        "ities"
      ],
      [
        "it",
        "ed"
      ],
      [
        "stor",
        "y"
      ],
      [
        "F",
        "r"
      ],
      [
        "sp",
        "ir"
      ],
      [
        "ut",
        "ure"
      ],
      [
        "port",
        "un"
      ],
      [
        "l",
        "angu"
      ],
      [
        "cl",
        "ass"
      ],
      [
        "prom",
        "ot"
      ],
      [
        "a",
        "im"
      ],
      [
        "or",
        "d"
      ],
      [
        "import",
        "ant"
      ],
      [
        "ta",
        "ke"
      ],
      [
        "it",
        "ing"
      ],
      [
        "bec",
        "ome"
      ],
      [
        "m",
        "en"
      ],
      [
        "ac",
        "y"
      ],
      [
        "ch",
        "ang"
      ],
      [
        "t",
        "le"
      ],
      [
        "w",
        "ant"
      ],
      [
        "es",
        "sion"
      ],
      [
        "bel",
        "i"
      ],
      [
        "vi",
        "ew"
      ],
      [
        "pr",
        "i"
      ],
      [
        "in",
        "si"
      ],
      [
        "spec",
        "ific"
      ],
      [
        "p",
        "at"
      ],
      [
        "main",
        "tain"
      ],
      [
        "ap",
        "preci"
      ],
      [
        "y",
        "th"
      ],
      [
        "ne",
        "y"
      ],
      [
        "Ch",
        "apter"
      ],
      [
        "ain",
        "s"
      ],
      [
        "every",
        "one"
      ],
      [
        "or",
        "t"
      ],
      [
        "S",
        "ome"
      ],
      [
        "ater",
        "ial"
      ],
      [
        "A",
        "r"
      ],
      [
        "s",
        "it"
      ],
      [
        "empor",
        "ary"
      ],
      [
        "le",
        "g"
      ],
      [
        "lab",
        "or"
      ],
      [
        "on",
        "ly"
      ],
      [
        "through",
        "out"
      ],
      [
        "An",
        "d"
      ],
      [
        "techn",
        "iques"
      ],
      [
        "re",
        "present"
      ],
      [
        "inform",
        "ation"
      ],
      [
        "lec",
        "t"
      ],
      [
        "mo",
        "ve"
      ],
      [
        "ar",
        "ing"
      ],
      [
        "know",
        "n"
      ],
      [
        "mul",
        "ti"
      ],
      [
        "cr",
        "u"
      ],
      [
        "stud",
        "ents"
      ],
      [
        "fo",
        "ster"
      ],
      [
        "some",
        "one"
      ],
      [
        "op",
        "portun"
      ],
      [
        "mo",
        "st"
      ],
      [
        "spec",
        "ial"
      ],
      [
        "P",
        "ro"
      ],
      [
        "mer",
        "ic"
      ],
      [
        "bec",
        "ause"
      ],
      [
        "b",
        "en"
      ],
      [
        "an",
        "ts"
      ],
      [
        "co",
        "gn"
      ],
      [
        "Under",
        "standing"
      ],
      [
        "di",
        "tion"
      ],
      [
        ",",
        "\""
      ],
      [
        "od",
        "y"
      ],
      [
        "su",
        "m"
      ],
      [
        "e",
        "as"
      ],
      [
        "b",
        "us"
      ],
      [
        "ma",
        "ke"
      ],
      [
        "m",
        "ade"
      ],
      [
        "ra",
        "w"
      ],
      [
        "enc",
        "y"
      ],
      [
        "n",
        "ec"
      ],
      [
        "olog",
        "ical"
      ],
      [
        "skill",
        "s"
      ],
      [
        "on",
        "om"
      ],
      [
        "##",
        "#"
      ],
      [
        "l",
        "ish"
      ],
      [
        "incre",
        "as"
      ],
      [
        "z",
        "ing"
      ],
      [
        "A",
        "meric"
      ],
      [
        "H",
        "e"
      ],
      [
        "sm",
        "all"
      ],
      [
        "person",
        "al"
      ],
      [
        "m",
        "is"
      ],
      [
        "commun",
        "ities"
      ],
      [
        "appro",
        "ach"
      ],
      [
        "**",
        ":"
      ],
      [
        "sh",
        "ips"
      ],
      [
        "Wh",
        "at"
      ],
      [
        "d",
        "en"
      ],
      [
        "ac",
        "ter"
      ],
      [
        "valu",
        "able"
      ],
      [
        "s",
        "a"
      ],
      [
        "fas",
        "cin"
      ],
      [
        "cont",
        "ro"
      ],
      [
        "j",
        "oy"
      ],
      [
        "issu",
        "es"
      ],
      [
        "y",
        "ear"
      ],
      [
        "sel",
        "ves"
      ],
      [
        "conn",
        "ec"
      ],
      [
        "n",
        "er"
      ],
      [
        "op",
        "er"
      ],
      [
        "be",
        "en"
      ],
      [
        "ain",
        "ing"
      ],
      [
        "in",
        "flu"
      ],
      [
        "suc",
        "cess"
      ],
      [
        "ire",
        "d"
      ],
      [
        "ti",
        "vely"
      ],
      [
        "di",
        "d"
      ],
      [
        "ac",
        "tions"
      ],
      [
        "ec",
        "tive"
      ],
      [
        "fri",
        "end"
      ],
      [
        "w",
        "rit"
      ],
      [
        "form",
        "s"
      ],
      [
        "s",
        "cho"
      ],
      [
        "fri",
        "ends"
      ],
      [
        "am",
        "s"
      ],
      [
        "tr",
        "a"
      ],
      [
        "to",
        "p"
      ],
      [
        "at",
        "ures"
      ],
      [
        "no",
        "v"
      ],
      [
        "di",
        "es"
      ],
      [
        "ke",
        "ep"
      ],
      [
        "in",
        "s"
      ],
      [
        "en",
        "h"
      ],
      [
        "f",
        "uture"
      ],
      [
        "m",
        "aterial"
      ],
      [
        "a",
        "ther"
      ],
      [
        "lo",
        "ok"
      ],
      [
        "f",
        "ind"
      ],
      [
        "plic",
        "ations"
[...]
